{
  "version": "1.0",
  "truncation": null,
  "padding": null,
  "added_tokens": [
    {
      "id": 0,
      "content": "<|endoftext|>",
      "single_word": false,
      "lstrip": false,
      "rstrip": false,
      "normalized": false,
      "special": true
    }
  ],
  "normalizer": null,
  "pre_tokenizer": {
    "type": "ByteLevel",
    "add_prefix_space": false,
    "trim_offsets": true,
    "use_regex": true
  },
  "post_processor": null,
  "decoder": {
    "type": "ByteLevel",
    "add_prefix_space": true,
    "trim_offsets": true,
    "use_regex": true
  },
  "model": {
    "type": "BPE",
    "dropout": null,
    "unk_token": null,
    "continuing_subword_prefix": null,
    "end_of_word_suffix": null,
    "fuse_unk": false,
    "byte_fallback": false,
    "ignore_merges": false,
    "vocab": {
      "<|endoftext|>": 0,
      "!": 1,
      "\"": 2,
      "#": 3,
      "$": 4,
      "%": 5,
      "&": 6,
      "'": 7,
      "(": 8,
      ")": 9,
      "*": 10,
      "+": 11,
      ",": 12,
      "-": 13,
      ".": 14,
      "/": 15,
      "0": 16,
      "1": 17,
      "2": 18,
      "3": 19,
      "4": 20,
      "5": 21,
      "6": 22,
      "7": 23,
      "8": 24,
      "9": 25,
      ":": 26,
      ";": 27,
      "<": 28,
      "=": 29,
      ">": 30,
      "?": 31,
      "@": 32,
      "A": 33,
      "B": 34,
      "C": 35,
      "D": 36,
      "E": 37,
      "F": 38,
      "G": 39,
      "H": 40,
      "I": 41,
      "J": 42,
      "K": 43,
      "L": 44,
      "M": 45,
      "N": 46,
      "O": 47,
      "P": 48,
      "Q": 49,
      "R": 50,
      "S": 51,
      "T": 52,
      "U": 53,
      "V": 54,
      "W": 55,
      "X": 56,
      "Y": 57,
      "Z": 58,
      "[": 59,
      "\\": 60,
      "]": 61,
      "^": 62,
      "_": 63,
      "`": 64,
      "a": 65,
      "b": 66,
      "c": 67,
      "d": 68,
      "e": 69,
      "f": 70,
      "g": 71,
      "h": 72,
      "i": 73,
      "j": 74,
      "k": 75,
      "l": 76,
      "m": 77,
      "n": 78,
      "o": 79,
      "p": 80,
      "q": 81,
      "r": 82,
      "s": 83,
      "t": 84,
      "u": 85,
      "v": 86,
      "w": 87,
      "x": 88,
      "y": 89,
      "z": 90,
      "{": 91,
      "|": 92,
      "}": 93,
      "~": 94,
      "¡": 95,
      "¢": 96,
      "£": 97,
      "¤": 98,
      "¥": 99,
      "¦": 100,
      "§": 101,
      "¨": 102,
      "©": 103,
      "ª": 104,
      "«": 105,
      "¬": 106,
      "®": 107,
      "¯": 108,
      "°": 109,
      "±": 110,
      "²": 111,
      "³": 112,
      "´": 113,
      "µ": 114,
      "¶": 115,
      "·": 116,
      "¸": 117,
      "¹": 118,
      "º": 119,
      "»": 120,
      "¼": 121,
      "½": 122,
      "¾": 123,
      "¿": 124,
      "À": 125,
      "Á": 126,
      "Â": 127,
      "Ã": 128,
      "Ä": 129,
      "Å": 130,
      "Æ": 131,
      "Ç": 132,
      "È": 133,
      "É": 134,
      "Ê": 135,
      "Ë": 136,
      "Ì": 137,
      "Í": 138,
      "Î": 139,
      "Ï": 140,
      "Ð": 141,
      "Ñ": 142,
      "Ò": 143,
      "Ó": 144,
      "Ô": 145,
      "Õ": 146,
      "Ö": 147,
      "×": 148,
      "Ø": 149,
      "Ù": 150,
      "Ú": 151,
      "Û": 152,
      "Ü": 153,
      "Ý": 154,
      "Þ": 155,
      "ß": 156,
      "à": 157,
      "á": 158,
      "â": 159,
      "ã": 160,
      "ä": 161,
      "å": 162,
      "æ": 163,
      "ç": 164,
      "è": 165,
      "é": 166,
      "ê": 167,
      "ë": 168,
      "ì": 169,
      "í": 170,
      "î": 171,
      "ï": 172,
      "ð": 173,
      "ñ": 174,
      "ò": 175,
      "ó": 176,
      "ô": 177,
      "õ": 178,
      "ö": 179,
      "÷": 180,
      "ø": 181,
      "ù": 182,
      "ú": 183,
      "û": 184,
      "ü": 185,
      "ý": 186,
      "þ": 187,
      "ÿ": 188,
      "Ā": 189,
      "ā": 190,
      "Ă": 191,
      "ă": 192,
      "Ą": 193,
      "ą": 194,
      "Ć": 195,
      "ć": 196,
      "Ĉ": 197,
      "ĉ": 198,
      "Ċ": 199,
      "ċ": 200,
      "Č": 201,
      "č": 202,
      "Ď": 203,
      "ď": 204,
      "Đ": 205,
      "đ": 206,
      "Ē": 207,
      "ē": 208,
      "Ĕ": 209,
      "ĕ": 210,
      "Ė": 211,
      "ė": 212,
      "Ę": 213,
      "ę": 214,
      "Ě": 215,
      "ě": 216,
      "Ĝ": 217,
      "ĝ": 218,
      "Ğ": 219,
      "ğ": 220,
      "Ġ": 221,
      "ġ": 222,
      "Ģ": 223,
      "ģ": 224,
      "Ĥ": 225,
      "ĥ": 226,
      "Ħ": 227,
      "ħ": 228,
      "Ĩ": 229,
      "ĩ": 230,
      "Ī": 231,
      "ī": 232,
      "Ĭ": 233,
      "ĭ": 234,
      "Į": 235,
      "į": 236,
      "İ": 237,
      "ı": 238,
      "Ĳ": 239,
      "ĳ": 240,
      "Ĵ": 241,
      "ĵ": 242,
      "Ķ": 243,
      "ķ": 244,
      "ĸ": 245,
      "Ĺ": 246,
      "ĺ": 247,
      "Ļ": 248,
      "ļ": 249,
      "Ľ": 250,
      "ľ": 251,
      "Ŀ": 252,
      "ŀ": 253,
      "Ł": 254,
      "ł": 255,
      "Ń": 256,
      "Ġt": 257,
      "Ġa": 258,
      "he": 259,
      "in": 260,
      "re": 261,
      "Ġthe": 262,
      "Ġo": 263,
      "er": 264,
      "on": 265,
      "at": 266,
      "Ġs": 267,
      "en": 268,
      "Ġc": 269,
      "es": 270,
      "Ġw": 271,
      "is": 272,
      "nd": 273,
      "or": 274,
      "it": 275,
      "Ġp": 276,
      "ed": 277,
      "Ġof": 278,
      "al": 279,
      "Ġb": 280,
      "Ġf": 281,
      "an": 282,
      "Ġin": 283,
      "ing": 284,
      "ar": 285,
      "Ġm": 286,
      "ou": 287,
      "Ġand": 288,
      "ic": 289,
      "Ġto": 290,
      "ion": 291,
      "Ġd": 292,
      "ro": 293,
      "le": 294,
      "as": 295,
      "ent": 296,
      "Ġh": 297,
      "Ġth": 298,
      "ct": 299,
      "Ġe": 300,
      "il": 301,
      "Ġre": 302,
      "ĠT": 303,
      "om": 304,
      "ve": 305,
      "Ġl": 306,
      "Ġn": 307,
      "st": 308,
      "Ġbe": 309,
      "ly": 310,
      "ation": 311,
      "Ġis": 312,
      "ĠA": 313,
      "se": 314,
      "Ġg": 315,
      "ol": 316,
      "id": 317,
      "im": 318,
      "ĠS": 319,
      "ce": 320,
      "et": 321,
      "ut": 322,
      "ra": 323,
      "ĠC": 324,
      "ĠI": 325,
      "ot": 326,
      "ur": 327,
      "ch": 328,
      "Ġfor": 329,
      "ow": 330,
      "ig": 331,
      "Ġthat": 332,
      "Ġon": 333,
      "Ġu": 334,
      "ver": 335,
      "âĢ": 336,
      "ĠThe": 337,
      "Ġst": 338,
      "ir": 339,
      "am": 340,
      "ul": 341,
      "ĠM": 342,
      "ay": 343,
      "Ġas": 344,
      "el": 345,
      "Ġpro": 346,
      "Ġcon": 347,
      "her": 348,
      "ith": 349,
      "ad": 350,
      "Ġan": 351,
      "Ġ1": 352,
      "Ġ(": 353,
      "ĠP": 354,
      "Ġwh": 355,
      "ter": 356,
      "Ġwith": 357,
      "Ġare": 358,
      "Ġor": 359,
      "Ġit": 360,
      "Ġy": 361,
      "if": 362,
      "Ġal": 363,
      "ment": 364,
      "ĠB": 365,
      "ist": 366,
      "ĠH": 367,
      "op": 368,
      "ers": 369,
      "od": 370,
      "ge": 371,
      "th": 372,
      "ies": 373,
      "Ġde": 374,
      "ate": 375,
      "ect": 376,
      "ere": 377,
      "us": 378,
      "ity": 379,
      "Ġex": 380,
      "ab": 381,
      "ĠW": 382,
      "ill": 383,
      "res": 384,
      "um": 385,
      "os": 386,
      "est": 387,
      "Ġcom": 388,
      "Ġby": 389,
      "ess": 390,
      "ore": 391,
      "ri": 392,
      "ld": 393,
      "ĠD": 394,
      "Ġsu": 395,
      "rom": 396,
      "Ġhe": 397,
      "em": 398,
      "and": 399,
      "ĠE": 400,
      "ĠF": 401,
      "nt": 402,
      "ive": 403,
      "Ġat": 404,
      "ac": 405,
      "our": 406,
      "ĠR": 407,
      "qu": 408,
      "pp": 409,
      "Ġwas": 410,
      "Ġv": 411,
      "ain": 412,
      "ant": 413,
      "ĠN": 414,
      "Ġ-": 415,
      "ud": 416,
      "iv": 417,
      "oc": 418,
      "Ġfrom": 419,
      "Ġ2": 420,
      "Ġha": 421,
      "igh": 422,
      "ke": 423,
      "Ġse": 424,
      "ĠG": 425,
      "Ġne": 426,
      "ort": 427,
      "ure": 428,
      "Ġch": 429,
      "ĠL": 430,
      "un": 431,
      "Ġnot": 432,
      "Ġr": 433,
      "ial": 434,
      "ical": 435,
      "art": 436,
      "00": 437,
      "Ġcan": 438,
      "Ġhave": 439,
      "Ġle": 440,
      "Ġsp": 441,
      "Ġsh": 442,
      "og": 443,
      "ĠO": 444,
      "Ġen": 445,
      "ĠIn": 446,
      "ich": 447,
      "pt": 448,
      "all": 449,
      "ould": 450,
      "ĠJ": 451,
      "Ġthis": 452,
      "gh": 453,
      "ight": 454,
      "rou": 455,
      "ĠâĢ": 456,
      "ther": 457,
      "'s": 458,
      "Ġwor": 459,
      "Ġab": 460,
      "ions": 461,
      "âĢĻ": 462,
      "ated": 463,
      "Ġyou": 464,
      "Ġ\"": 465,
      "ome": 466,
      "ard": 467,
      "du": 468,
      "ĠU": 469,
      "ell": 470,
      "ost": 471,
      "ear": 472,
      "out": 473,
      "per": 474,
      "ff": 475,
      "act": 476,
      "ia": 477,
      "Ġint": 478,
      "Ġwhich": 479,
      "ast": 480,
      "Ġpl": 481,
      "ans": 482,
      "Ġim": 483,
      "Ġwe": 484,
      "Ġtheir": 485,
      "ine": 486,
      "age": 487,
      "Ġus": 488,
      "ru": 489,
      "iz": 490,
      "pl": 491,
      "ew": 492,
      "Ġcont": 493,
      "Ġdis": 494,
      "ec": 495,
      "ous": 496,
      "ide": 497,
      "ag": 498,
      "Ġk": 499,
      "cc": 500,
      "ib": 501,
      "ap": 502,
      "are": 503,
      "ations": 504,
      "ĠTh": 505,
      "Ġwere": 506,
      "vel": 507,
      "ust": 508,
      "Ġall": 509,
      "Ġwhe": 510,
      "ak": 511,
      "ater": 512,
      "čĊ": 513,
      "Ġad": 514,
      "ong": 515,
      "Ġmore": 516,
      "ary": 517,
      "Ġ19": 518,
      "orm": 519,
      "Ġthey": 520,
      "Ġinc": 521,
      "Ġhas": 522,
      "end": 523,
      "ip": 524,
      "ult": 525,
      "Ġres": 526,
      "Ġper": 527,
      "Ġcomp": 528,
      "Ġdo": 529,
      "ual": 530,
      "Ġbut": 531,
      "ire": 532,
      "Ġother": 533,
      "ild": 534,
      "so": 535,
      "ood": 536,
      "ence": 537,
      "Ġwill": 538,
      "ry": 539,
      "ign": 540,
      "Ġcl": 541,
      "ance": 542,
      "Ġman": 543,
      "ks": 544,
      "ose": 545,
      "ep": 546,
      "able": 547,
      "Ġone": 548,
      "Ġar": 549,
      "Ġj": 550,
      "ach": 551,
      "ress": 552,
      "Ġapp": 553,
      "ount": 554,
      "ass": 555,
      "Ġpart": 556,
      "ase": 557,
      "Ġme": 558,
      "ĠK": 559,
      "ind": 560,
      "ĠSt": 561,
      "reat": 562,
      "ord": 563,
      "ace": 564,
      "ction": 565,
      "Ġev": 566,
      "Ġun": 567,
      "Ġalso": 568,
      "ĠCh": 569,
      "âĢĿ": 570,
      "Ġimp": 571,
      "ĠâĢľ": 572,
      "Ġcomm": 573,
      "au": 574,
      "Ġhis": 575,
      "ame": 576,
      "Ġwho": 577,
      "ory": 578,
      "ents": 579,
      "Ġinf": 580,
      "ber": 581,
      "av": 582,
      "Ġso": 583,
      ").": 584,
      "Ġout": 585,
      "ice": 586,
      "ens": 587,
      "Ġte": 588,
      "ĠIt": 589,
      "ish": 590,
      "ian": 591,
      "Ġabout": 592,
      "Ġsc": 593,
      "Ġpre": 594,
      "ition": 595,
      "ite": 596,
      "ake": 597,
      "ime": 598,
      "very": 599,
      "ree": 600,
      "ack": 601,
      "ub": 602,
      "ces": 603,
      "olog": 604,
      "Ġyour": 605,
      "Ġmay": 606,
      "Ġthan": 607,
      "Ġits": 608,
      "ors": 609,
      "Ġbeen": 610,
      "one": 611,
      "ound": 612,
      "Ġsome": 613,
      "ĠV": 614,
      "Ġup": 615,
      "Ġsy": 616,
      "Ġthem": 617,
      "Ġrec": 618,
      "Ġpe": 619,
      "Ġstud": 620,
      "Ġthere": 621,
      "ok": 622,
      "ang": 623,
      "Ġyear": 624,
      "ĠThis": 625,
      "ric": 626,
      "ile": 627,
      "ates": 628,
      "ue": 629,
      "Ġqu": 630,
      "own": 631,
      "Ġag": 632,
      "Ġ3": 633,
      "ject": 634,
      "Ġbec": 635,
      "low": 636,
      "ail": 637,
      "mer": 638,
      "ike": 639,
      "ons": 640,
      "Ġgo": 641,
      "Ġinto": 642,
      "nder": 643,
      "Ġhad": 644,
      "ough": 645,
      "tern": 646,
      "Ġtra": 647,
      "rough": 648,
      "ie": 649,
      "ings": 650,
      "vers": 651,
      "Ġdes": 652,
      "Ġgen": 653,
      "ays": 654,
      "iff": 655,
      "Ġro": 656,
      "ople": 657,
      "ph": 658,
      "lic": 659,
      "ms": 660,
      "velop": 661,
      "te": 662,
      "erv": 663,
      "ob": 664,
      "ational": 665,
      "Ġwork": 666,
      "ren": 667,
      "Ġra": 668,
      "ities": 669,
      "Ġtw": 670,
      "Ġbet": 671,
      "lect": 672,
      "Ġrep": 673,
      "rit": 674,
      "Ġwould": 675,
      "Ġact": 676,
      "hed": 677,
      "Ġthese": 678,
      "ond": 679,
      "ts": 680,
      "Ġcons": 681,
      "ĠY": 682,
      "Ġ200": 683,
      "Ġover": 684,
      "Ġkn": 685,
      "lud": 686,
      "ove": 687,
      "Ġwhen": 688,
      "Ġnew": 689,
      "we": 690,
      "Ġsa": 691,
      "ally": 692,
      "ments": 693,
      "irst": 694,
      "ĠUn": 695,
      "Ġunder": 696,
      "Ġsuch": 697,
      "Ġrel": 698,
      "ys": 699,
      "ffect": 700,
      "ific": 701,
      "Ġtime": 702,
      "wn": 703,
      "ause": 704,
      "Ġpeople": 705,
      "Ġuse": 706,
      "Ġany": 707,
      "ll": 708,
      "Ġdiff": 709,
      "stem": 710,
      "Ġmost": 711,
      "Ġcol": 712,
      "ative": 713,
      "Ġbl": 714,
      "red": 715,
      "Ġacc": 716,
      "Ġhow": 717,
      "Ġno": 718,
      "ient": 719,
      "ious": 720,
      "cess": 721,
      "les": 722,
      "Ġoff": 723,
      "ced": 724,
      "Ġob": 725,
      "Ġdevelop": 726,
      "),": 727,
      "rib": 728,
      "Ġif": 729,
      "Ġprov": 730,
      "ning": 731,
      "iss": 732,
      "Ġinclud": 733,
      "Ġam": 734,
      "Ġchild": 735,
      "ĠHe": 736,
      "Ġtwo": 737,
      "Ġlike": 738,
      "Ġspec": 739,
      "Ġ4": 740,
      "Ġsur": 741,
      "erm": 742,
      "Ġph": 743,
      "Ġonly": 744,
      "oss": 745,
      "Ġtr": 746,
      "Ġthrough": 747,
      "Ġpo": 748,
      "Ġprodu": 749,
      "ple": 750,
      "Ġfirst": 751,
      "ular": 752,
      "ook": 753,
      "ied": 754,
      "Ġneed": 755,
      "ĠAs": 756,
      "Ġexp": 757,
      "int": 758,
      "Ġreg": 759,
      "ov": 760,
      "Ġem": 761,
      "Ġ20": 762,
      "ating": 763,
      "Ġpr": 764,
      "fter": 765,
      "arch": 766,
      "Ġmany": 767,
      "ution": 768,
      "Ġused": 769,
      "iet": 770,
      "Ġac": 771,
      "uc": 772,
      "ert": 773,
      "als": 774,
      "Ġour": 775,
      "round": 776,
      "ween": 777,
      "Ġind": 778,
      "aw": 779,
      "hen": 780,
      "Ġwhat": 781,
      "ased": 782,
      "uring": 783,
      "Ġsystem": 784,
      "alth": 785,
      "Ġinter": 786,
      "ark": 787,
      "ists": 788,
      "Ġdec": 789,
      "Ġwater": 790,
      "ics": 791,
      "Ġsub": 792,
      "Ġshould": 793,
      "Ġco": 794,
      "ower": 795,
      "ited": 796,
      "Ġ5": 797,
      "Ġbetween": 798,
      "pe": 799,
      "ible": 800,
      "gra": 801,
      "Ġinv": 802,
      "ility": 803,
      "Ġyears": 804,
      "ten": 805,
      "Ġadd": 806,
      "oth": 807,
      "gan": 808,
      "Ġcould": 809,
      "Ġpol": 810,
      "old": 811,
      "Ġatt": 812,
      "ĠWh": 813,
      "ures": 814,
      "eth": 815,
      "ath": 816,
      "ne": 817,
      "..": 818,
      "ise": 819,
      "Ġcount": 820,
      "Ġrese": 821,
      "Ġrem": 822,
      "Ġass": 823,
      "ful": 824,
      "Ġhel": 825,
      "ever": 826,
      "cy": 827,
      "ble": 828,
      "fore": 829,
      "row": 830,
      "ife": 831,
      "ormation": 832,
      "ĠAn": 833,
      "sel": 834,
      "Ġhelp": 835,
      "Ġpres": 836,
      "ink": 837,
      "Ġdisc": 838,
      "Ġsupp": 839,
      "ran": 840,
      "Ġdiffere": 841,
      "ants": 842,
      "Ġwhere": 843,
      "ology": 844,
      "Ġcent": 845,
      "uch": 846,
      "Ġfe": 847,
      "ick": 848,
      "ĠPro": 849,
      "ĠAl": 850,
      "ered": 851,
      "ft": 852,
      "hes": 853,
      "ont": 854,
      "Ġfl": 855,
      "ism": 856,
      "Ġnum": 857,
      "ract": 858,
      "ade": 859,
      "Ġthose": 860,
      "its": 861,
      "Ġexam": 862,
      "Ġsign": 863,
      "Ġwell": 864,
      "ident": 865,
      "Ġmed": 866,
      "ins": 867,
      "cent": 868,
      "ex": 869,
      "ork": 870,
      "Ġtrans": 871,
      "ool": 872,
      "oy": 873,
      "Ġhum": 874,
      "ature": 875,
      "Ġear": 876,
      "Ġdet": 877,
      "Ġhigh": 878,
      "Ġcall": 879,
      "ily": 880,
      "Ġform": 881,
      "ural": 882,
      "Ġeffect": 883,
      "meric": 884,
      "land": 885,
      "ĠFor": 886,
      ".\"": 887,
      "ines": 888,
      "cept": 889,
      "vern": 890,
      "Ġsaid": 891,
      "Ġmod": 892,
      "Ġsm": 893,
      "ĠRe": 894,
      "Ġref": 895,
      "ivers": 896,
      "Ġpers": 897,
      "chn": 898,
      "Ġfound": 899,
      "Ġloc": 900,
      "ict": 901,
      "ĠEn": 902,
      "Ġlar": 903,
      "Ġher": 904,
      "Ġinst": 905,
      "vent": 906,
      "ĠAmeric": 907,
      "ĠCom": 908,
      "Ġdef": 909,
      "Ġeven": 910,
      "ars": 911,
      "gy": 912,
      "ases": 913,
      "ually": 914,
      "Ġlong": 915,
      "Ġfact": 916,
      "ange": 917,
      "ds": 918,
      "Ġ18": 919,
      "Ġafter": 920,
      "Ġgra": 921,
      "Ġimport": 922,
      "Ġinformation": 923,
      "Ġcell": 924,
      "Ġbu": 925,
      "ĠIf": 926,
      "Ġincre": 927,
      "other": 928,
      "itt": 929,
      "Ġmake": 930,
      "led": 931,
      "Ġcommun": 932,
      "Ġed": 933,
      "urn": 934,
      "ved": 935,
      "Ġworld": 936,
      "ward": 937,
      "Ġmem": 938,
      "Ġgener": 939,
      "Ġsame": 940,
      "ĠHow": 941,
      "ata": 942,
      "Ġbecause": 943,
      "ĠWe": 944,
      "Ġjust": 945,
      "Ġway": 946,
      "Ġext": 947,
      "ollow": 948,
      "ection": 949,
      "Ġright": 950,
      "ruct": 951,
      "ience": 952,
      "ives": 953,
      "Ġthen": 954,
      "chool": 955,
      "ically": 956,
      "ck": 957,
      "iew": 958,
      "Ġbeing": 959,
      "Ġprocess": 960,
      "Ġart": 961,
      "ix": 962,
      "Ġknow": 963,
      "Ġvery": 964,
      "Ġget": 965,
      "Ġexper": 966,
      "Ġ6": 967,
      "io": 968,
      "Ġsee": 969,
      "cer": 970,
      "Ġsec": 971,
      "Ġdist": 972,
      "Ġfam": 973,
      "imes": 974,
      "Ġpartic": 975,
      "Ġsim": 976,
      "iron": 977,
      "Ġpub": 978,
      "ized": 979,
      "Ġeach": 980,
      "Ġresp": 981,
      "Ġpat": 982,
      "ages": 983,
      "Ġresult": 984,
      "ues": 985,
      "Ġmuch": 986,
      "ty": 987,
      "Ġocc": 988,
      "roup": 989,
      "Ġaut": 990,
      "Ġchildren": 991,
      "Ġhealth": 992,
      "Ġtest": 993,
      "Ġcar": 994,
      "Ġdifferent": 995,
      "Ġrequ": 996,
      "Ġke": 997,
      "ĠAr": 998,
      "Ġ201": 999,
      "Ġcor": 1000,
      "aking": 1001,
      "Ġback": 1002,
      "ize": 1003,
      "Ġca": 1004,
      "irect": 1005,
      "Ġsoc": 1006,
      "ĠThey": 1007,
      "Ġty": 1008,
      "'t": 1009,
      "Ġ7": 1010,
      "ather": 1011,
      "19": 1012,
      "The": 1013,
      "Ġstate": 1014,
      "ah": 1015,
      "Ġmon": 1016,
      "con": 1017,
      "get": 1018,
      "Ġfollow": 1019,
      "Ġduring": 1020,
      "Ġagain": 1021,
      "ness": 1022,
      "Ġset": 1023,
      "Ġvar": 1024,
      "Ġtechn": 1025,
      "hem": 1026,
      "iversity": 1027,
      ",\"": 1028,
      "ral": 1029,
      "ĠNew": 1030,
      "Ġmin": 1031,
      "Ġgovern": 1032,
      "viron": 1033,
      "||": 1034,
      "ros": 1035,
      "ince": 1036,
      "Ġown": 1037,
      "ĠSe": 1038,
      "ĠBut": 1039,
      "Ġent": 1040,
      "Ġhim": 1041,
      "ĠSc": 1042,
      "Ġdoes": 1043,
      "ene": 1044,
      "Ġevery": 1045,
      "ished": 1046,
      "ĠThere": 1047,
      "Ġappro": 1048,
      "und": 1049,
      "form": 1050,
      "Ġend": 1051,
      "ination": 1052,
      "ined": 1053,
      "Ġdep": 1054,
      "Ġcur": 1055,
      "Ġmade": 1056,
      "gg": 1057,
      "Ġpop": 1058,
      "ands": 1059,
      "Ġest": 1060,
      "Ġtreat": 1061,
      "Ġresearch": 1062,
      "Ġcomple": 1063,
      "Ġlear": 1064,
      "Ġcre": 1065,
      "Ġimportant": 1066,
      "oun": 1067,
      "rol": 1068,
      "Ġser": 1069,
      "Ġproble": 1070,
      "Ġins": 1071,
      "Ġshow": 1072,
      "Ġboth": 1073,
      "iel": 1074,
      "ital": 1075,
      "ĠDe": 1076,
      "Ġshe": 1077,
      "Ġma": 1078,
      "ury": 1079,
      "Ġbefore": 1080,
      "Ġwar": 1081,
      "Ġgroup": 1082,
      "Ġprogra": 1083,
      "Ġorgan": 1084,
      "Ġsmall": 1085,
      "Ġlevel": 1086,
      "ior": 1087,
      "Ġdata": 1088,
      "ides": 1089,
      "Ġthree": 1090,
      "ven": 1091,
      "Ġfind": 1092,
      "ĠIs": 1093,
      "Ġstudy": 1094,
      "ĠInd": 1095,
      "Ġcontin": 1096,
      "Ġprot": 1097,
      "Ġ199": 1098,
      "Ġ10": 1099,
      "hip": 1100,
      "Ġhist": 1101,
      "ially": 1102,
      "ron": 1103,
      "read": 1104,
      "vironment": 1105,
      "Ġpower": 1106,
      "ving": 1107,
      "xt": 1108,
      "Ġactiv": 1109,
      "Ġread": 1110,
      "Ġlife": 1111,
      ".,": 1112,
      "ute": 1113,
      "Ġmy": 1114,
      "Ġreport": 1115,
      "Ġnow": 1116,
      "ĠâĢĵ": 1117,
      "Ġnumber": 1118,
      "Ġposs": 1119,
      "Ġcour": 1120,
      "any": 1121,
      "Ġelect": 1122,
      "000": 1123,
      "inal": 1124,
      "Ġoften": 1125,
      "imate": 1126,
      "Ġ|": 1127,
      "ĠAnd": 1128,
      "Ġdise": 1129,
      "ting": 1130,
      "Ġusing": 1131,
      "Ġav": 1132,
      "ergy": 1133,
      "Ġmust": 1134,
      "Ġdown": 1135,
      "ĠSp": 1136,
      "omen": 1137,
      "stit": 1138,
      "Ġhuman": 1139,
      "Ġbo": 1140,
      "Ġexpl": 1141,
      "Ġperson": 1142,
      "com": 1143,
      "orth": 1144,
      "Ġdid": 1145,
      "Ġsol": 1146,
      "osed": 1147,
      "Ġexample": 1148,
      "ring": 1149,
      "ices": 1150,
      "Ġlaw": 1151,
      "Ġgl": 1152,
      ".âĢĿ": 1153,
      "rent": 1154,
      "uss": 1155,
      "Ġlead": 1156,
      "Ġ8": 1157,
      "Ġcalled": 1158,
      "Ġpercent": 1159,
      "ters": 1160,
      "up": 1161,
      "Ġgood": 1162,
      "Ġbel": 1163,
      "ody": 1164,
      "ĠAt": 1165,
      "Ġschool": 1166,
      "Ġgrow": 1167,
      "ave": 1168,
      "ock": 1169,
      "air": 1170,
      "ves": 1171,
      "Ġvis": 1172,
      "ger": 1173,
      "ĠOn": 1174,
      "ared": 1175,
      "Ġdesc": 1176,
      "ians": 1177,
      "outh": 1178,
      "Ġconf": 1179,
      "Ġmain": 1180,
      "hers": 1181,
      "cl": 1182,
      "gen": 1183,
      "Ġredu": 1184,
      "Ġdirect": 1185,
      "ĠPh": 1186,
      "Ġchar": 1187,
      "bers": 1188,
      "stand": 1189,
      "Ġlarge": 1190,
      "de": 1191,
      "Ġtem": 1192,
      "Ġwhile": 1193,
      "ivid": 1194,
      "self": 1195,
      "ains": 1196,
      "Ġplan": 1197,
      "Ġthough": 1198,
      "ĠUniversity": 1199,
      "Ġless": 1200,
      "ier": 1201,
      "ĠTo": 1202,
      "Ġconsid": 1203,
      "der": 1204,
      "the": 1205,
      "Ġcommon": 1206,
      "Ġsk": 1207,
      "ale": 1208,
      "ulation": 1209,
      "Ġstudents": 1210,
      "lear": 1211,
      "ĠRes": 1212,
      "Ġdesign": 1213,
      "Ġgovernment": 1214,
      "Ġcap": 1215,
      "ality": 1216,
      "ries": 1217,
      "Ġmet": 1218,
      "iation": 1219,
      "oh": 1220,
      "Ġallow": 1221,
      "day": 1222,
      "Ġsupport": 1223,
      "itions": 1224,
      "Ġfun": 1225,
      "Ġstill": 1226,
      "ton": 1227,
      "Ġobject": 1228,
      "Ġgreat": 1229,
      "ĠCon": 1230,
      "Ġincluding": 1231,
      "Ġstr": 1232,
      "ted": 1233,
      "ources": 1234,
      "ization": 1235,
      "Ġop": 1236,
      "âĢĶ": 1237,
      "Ġaround": 1238,
      "Ġret": 1239,
      "acter": 1240,
      "20": 1241,
      "Ġserv": 1242,
      "Ġagainst": 1243,
      "illion": 1244,
      "iqu": 1245,
      "Ġ'": 1246,
      "ium": 1247,
      "ĠThese": 1248,
      "ĠWhen": 1249,
      "conom": 1250,
      "Ġwithout": 1251,
      "Ġplace": 1252,
      "ner": 1253,
      "eral": 1254,
      "ected": 1255,
      "ris": 1256,
      "Ġsom": 1257,
      "iety": 1258,
      "dition": 1259,
      "Ġris": 1260,
      "ption": 1261,
      "man": 1262,
      "Ġmight": 1263,
      "mon": 1264,
      "Ġ9": 1265,
      "Ġfar": 1266,
      "ouse": 1267,
      "Ġcare": 1268,
      "ĠHowever": 1269,
      "orn": 1270,
      "ained": 1271,
      "ĠAmerican": 1272,
      "ired": 1273,
      "10": 1274,
      "inc": 1275,
      "Ġfood": 1276,
      "Ġday": 1277,
      "Ġequ": 1278,
      "Ġ15": 1279,
      "akes": 1280,
      "rist": 1281,
      "Ġval": 1282,
      "Ġclass": 1283,
      "Ġpress": 1284,
      "ross": 1285,
      "ense": 1286,
      "iven": 1287,
      "Ġlook": 1288,
      "Ġadv": 1289,
      "iver": 1290,
      "ĠJew": 1291,
      "Ġknown": 1292,
      "amp": 1293,
      "Ġpublic": 1294,
      "jor": 1295,
      "erest": 1296,
      "Ġmil": 1297,
      "way": 1298,
      "Ġtake": 1299,
      "ull": 1300,
      "Ġmar": 1301,
      "ash": 1302,
      "ids": 1303,
      "aterial": 1304,
      "ertain": 1305,
      "Ġwrit": 1306,
      "Ġsl": 1307,
      "lished": 1308,
      "me": 1309,
      "Ġdevelopment": 1310,
      "ording": 1311,
      "Ġenvironment": 1312,
      "ien": 1313,
      "arent": 1314,
      "Ġland": 1315,
      "ified": 1316,
      "ret": 1317,
      "Ġarea": 1318,
      "rop": 1319,
      "Ġanother": 1320,
      "ĠWhat": 1321,
      "ional": 1322,
      "Ġspe": 1323,
      "Ġgu": 1324,
      "iving": 1325,
      "Ġenergy": 1326,
      "ining": 1327,
      "reen": 1328,
      "Ġfew": 1329,
      "ĠGod": 1330,
      "Ġphys": 1331,
      "ax": 1332,
      "Ġscient": 1333,
      "Ġquest": 1334,
      "Ġiss": 1335,
      "Ġdisease": 1336,
      "nce": 1337,
      "ration": 1338,
      "Ġsocial": 1339,
      "ĠCan": 1340,
      "ission": 1341,
      "use": 1342,
      "Ġmat": 1343,
      "Ġpresent": 1344,
      "Ġthink": 1345,
      "Ġwithin": 1346,
      "Ġleg": 1347,
      "Ġcontrol": 1348,
      "Ġoccur": 1349,
      "face": 1350,
      "hor": 1351,
      "Ġmeth": 1352,
      "ĠYou": 1353,
      "Ġeduc": 1354,
      "bs": 1355,
      "Ġcells": 1356,
      "iod": 1357,
      "Ġchang": 1358,
      "Ġpract": 1359,
      "ww": 1360,
      "work": 1361,
      "Ġstand": 1362,
      "ccess": 1363,
      "ĠUnited": 1364,
      "Ġide": 1365,
      "Ġtri": 1366,
      "Ġlow": 1367,
      "ĠAd": 1368,
      "Ġproduct": 1369,
      "Ġhand": 1370,
      "Ġinterest": 1371,
      "Ġunderstand": 1372,
      "Ġbuild": 1373,
      "atural": 1374,
      "Ġstart": 1375,
      "ived": 1376,
      "Ġmeas": 1377,
      "Ġeconom": 1378,
      "Ġeff": 1379,
      "Ġsays": 1380,
      "Ġrest": 1381,
      "ield": 1382,
      "ential": 1383,
      "Ġmajor": 1384,
      "gin": 1385,
      "Ġbody": 1386,
      "Ġant": 1387,
      "Ġspecies": 1388,
      "Ġpass": 1389,
      "ĠCol": 1390,
      "Ġinvol": 1391,
      "here": 1392,
      "eng": 1393,
      "Ġnear": 1394,
      "Ġlim": 1395,
      "olution": 1396,
      "ina": 1397,
      "Ġproject": 1398,
      "Ġ[": 1399,
      "Ġmaterial": 1400,
      "Ġbro": 1401,
      "Ġsever": 1402,
      "az": 1403,
      "less": 1404,
      "uro": 1405,
      "ently": 1406,
      "els": 1407,
      "ological": 1408,
      "lish": 1409,
      "Ġbas": 1410,
      "Ġpoint": 1411,
      "Ġproper": 1412,
      "Ġcaus": 1413,
      "itive": 1414,
      "ĠCent": 1415,
      "Ġbeh": 1416,
      "ote": 1417,
      "osp": 1418,
      "Ġchange": 1419,
      "though": 1420,
      "...": 1421,
      "Ġcountry": 1422,
      "Ġlocal": 1423,
      "Ġlater": 1424,
      "Ġinclude": 1425,
      "ĠLe": 1426,
      "Ġve": 1427,
      "ern": 1428,
      "ering": 1429,
      "Ġeas": 1430,
      "ĠChrist": 1431,
      "rodu": 1432,
      "ason": 1433,
      "Ġprogram": 1434,
      "ĠNational": 1435,
      "Ġfamily": 1436,
      "line": 1437,
      "Ġopp": 1438,
      "Ġoper": 1439,
      "atic": 1440,
      "Ġfore": 1441,
      "Ġanim": 1442,
      "med": 1443,
      "Ġlast": 1444,
      "Ġbir": 1445,
      "Ġunt": 1446,
      "Ġprovide": 1447,
      "Ġcurrent": 1448,
      "Ġ&": 1449,
      "Ġdon": 1450,
      "Ġeng": 1451,
      "ned": 1452,
      "ĠCl": 1453,
      "ards": 1454,
      "Ġearly": 1455,
      "ividual": 1456,
      "Ġele": 1457,
      "arc": 1458,
      "Ġlight": 1459,
      "Ġold": 1460,
      "Ġet": 1461,
      "Ġblood": 1462,
      "Ġtreatment": 1463,
      "erc": 1464,
      "Ġbelie": 1465,
      "ug": 1466,
      "Ġident": 1467,
      "ware": 1468,
      "Ġsay": 1469,
      "alk": 1470,
      "ify": 1471,
      "ternational": 1472,
      "tt": 1473,
      "ĠSh": 1474,
      "ets": 1475,
      "ames": 1476,
      "Ġbre": 1477,
      "resent": 1478,
      "Ġ17": 1479,
      "Ġsecond": 1480,
      "Ġparticular": 1481,
      "ples": 1482,
      "Ġaddition": 1483,
      "ploy": 1484,
      "Ġseveral": 1485,
      "ĠZ": 1486,
      "ource": 1487,
      "ĠEng": 1488,
      "Ġpot": 1489,
      "Ġmove": 1490,
      "Ġdeterm": 1491,
      "rain": 1492,
      "Ġmethod": 1493,
      "ĠQ": 1494,
      ",âĢĿ": 1495,
      "Ġsit": 1496,
      "angu": 1497,
      "oid": 1498,
      "Ġwomen": 1499,
      "Ġconst": 1500,
      "Ġareas": 1501,
      "over": 1502,
      "esp": 1503,
      "Ġtyp": 1504,
      "Ġamong": 1505,
      "cing": 1506,
      "par": 1507,
      "Ġtoo": 1508,
      "ĠStates": 1509,
      "pect": 1510,
      "Ġname": 1511,
      "ĠâĢĶ": 1512,
      "ogra": 1513,
      "ention": 1514,
      "Ġfour": 1515,
      "oms": 1516,
      "ole": 1517,
      "ision": 1518,
      "ĠBe": 1519,
      "Ġhig": 1520,
      "idence": 1521,
      "ĠPl": 1522,
      "Ġview": 1523,
      "Ġpar": 1524,
      "ĠEx": 1525,
      "att": 1526,
      "Ġcult": 1527,
      "Ġhome": 1528,
      "Ġorig": 1529,
      "ories": 1530,
      "Ġfollowing": 1531,
      "Ġtre": 1532,
      "Ġfre": 1533,
      "Ġanal": 1534,
      "Ġhere": 1535,
      "Ġrun": 1536,
      "Ġter": 1537,
      "Ġhy": 1538,
      "Ġperform": 1539,
      "Ġprop": 1540,
      "Ġmark": 1541,
      "Ġnet": 1542,
      "Ġdev": 1543,
      "Ġsuccess": 1544,
      "Ġcertain": 1545,
      "Ġmus": 1546,
      "Ġprof": 1547,
      "Ġpossible": 1548,
      "Ġavail": 1549,
      "ape": 1550,
      "Ġindividual": 1551,
      "isc": 1552,
      "ental": 1553,
      "ended": 1554,
      "lu": 1555,
      "ably": 1556,
      "12": 1557,
      "Ġwant": 1558,
      "Ġlab": 1559,
      "ĠComm": 1560,
      "Ġopen": 1561,
      "ats": 1562,
      "Ġapplic": 1563,
      "ek": 1564,
      "Ġtimes": 1565,
      "Ġair": 1566,
      "Ġel": 1567,
      "Ġgiven": 1568,
      "Ġbecome": 1569,
      "Ġpur": 1570,
      "Ġpos": 1571,
      "ĠAll": 1572,
      "Ġaffect": 1573,
      "Ġindu": 1574,
      "ĠSo": 1575,
      "Ġpolit": 1576,
      "Ġtru": 1577,
      "Ġstruct": 1578,
      "Ġsurface": 1579,
      "Ġfree": 1580,
      "Ġorder": 1581,
      "Ġplant": 1582,
      "Ġmean": 1583,
      "Ġmeans": 1584,
      "ability": 1585,
      "Ġbased": 1586,
      "Ġbetter": 1587,
      "Ġtemper": 1588,
      "aim": 1589,
      "ĠOne": 1590,
      "Ġrece": 1591,
      "Ġprovid": 1592,
      "Ġcause": 1593,
      "Ġprom": 1594,
      "Ġaccess": 1595,
      "18": 1596,
      "ged": 1597,
      "Ġtop": 1598,
      "etic": 1599,
      "Ġsince": 1600,
      "âĢĵ": 1601,
      "ĠMed": 1602,
      "ĠEar": 1603,
      "Ġplay": 1604,
      "ĠSome": 1605,
      "Ġhistory": 1606,
      "mb": 1607,
      "Ġimpro": 1608,
      "Ġperiod": 1609,
      "Ġbest": 1610,
      "Ġseem": 1611,
      "Ġfac": 1612,
      "urther": 1613,
      "Ġrecord": 1614,
      "ison": 1615,
      "ither": 1616,
      "Ġpain": 1617,
      "Ġmen": 1618,
      "Ġ12": 1619,
      "Ġkeep": 1620,
      "Ġpost": 1621,
      "Ġrev": 1622,
      "rug": 1623,
      "unt": 1624,
      "orts": 1625,
      "Ġ198": 1626,
      "urope": 1627,
      "NA": 1628,
      "ways": 1629,
      "Ġbi": 1630,
      "Ġcentury": 1631,
      "Ġpressure": 1632,
      "Ġfin": 1633,
      "Ġlist": 1634,
      "Ġ0": 1635,
      "une": 1636,
      "Ġleft": 1637,
      "icle": 1638,
      "ilar": 1639,
      "Ġ16": 1640,
      "Ġleast": 1641,
      "Ġdri": 1642,
      "Ġestab": 1643,
      "Ġdra": 1644,
      "Ġcase": 1645,
      "ĠTe": 1646,
      "Ġobs": 1647,
      "ator": 1648,
      "Ġmillion": 1649,
      "Ġavailable": 1650,
      "Ġabove": 1651,
      "Ġdescrib": 1652,
      "ler": 1653,
      "ling": 1654,
      "Ġche": 1655,
      "Ġcases": 1656,
      "Ġauthor": 1657,
      "Ġrisk": 1658,
      "rim": 1659,
      "Ġpri": 1660,
      "ued": 1661,
      "Ġcomput": 1662,
      "to": 1663,
      "idd": 1664,
      "oph": 1665,
      "ends": 1666,
      "Ġcountries": 1667,
      "ude": 1668,
      "Ġrad": 1669,
      "Ġothers": 1670,
      "Ġcommunity": 1671,
      "Ġconn": 1672,
      "Ġuntil": 1673,
      "ills": 1674,
      "ittle": 1675,
      "Ġturn": 1676,
      "Ġsing": 1677,
      "ĠSoc": 1678,
      "Ġrepresent": 1679,
      "Ġclear": 1680,
      "ances": 1681,
      "Ġdel": 1682,
      "obal": 1683,
      "Ġproblem": 1684,
      "gn": 1685,
      "Ġable": 1686,
      "aps": 1687,
      "Ġamount": 1688,
      "Ġcost": 1689,
      "ograph": 1690,
      "Ġthings": 1691,
      "apt": 1692,
      "sy": 1693,
      "Ġcond": 1694,
      "ggest": 1695,
      "ately": 1696,
      "Ġput": 1697,
      "Ġwords": 1698,
      "icult": 1699,
      "Ġhard": 1700,
      "ĠAb": 1701,
      "11": 1702,
      "Ġ13": 1703,
      "Ġsaf": 1704,
      "Ġnatural": 1705,
      "ogn": 1706,
      "Ġcrit": 1707,
      "ething": 1708,
      "ledge": 1709,
      "ik": 1710,
      "Ġlangu": 1711,
      "Ġproblems": 1712,
      "oks": 1713,
      "Ġmot": 1714,
      "por": 1715,
      "Ġnon": 1716,
      "ĠSy": 1717,
      "ured": 1718,
      "icial": 1719,
      "Ġsuggest": 1720,
      "ohn": 1721,
      "Ġreal": 1722,
      "Ġrele": 1723,
      "ĠEurope": 1724,
      "Ġbene": 1725,
      "ĠNorth": 1726,
      "Ġsignific": 1727,
      "irc": 1728,
      "ored": 1729,
      "ients": 1730,
      "ray": 1731,
      "Ġmonth": 1732,
      "50": 1733,
      "alf": 1734,
      "Ġbus": 1735,
      "Ġcomb": 1736,
      "Ġprevent": 1737,
      "Ġdiscuss": 1738,
      "ilities": 1739,
      "Ġlo": 1740,
      "Ġcourse": 1741,
      "eg": 1742,
      "Ġparent": 1743,
      "ivil": 1744,
      "Ġgr": 1745,
      "aper": 1746,
      "ĠAct": 1747,
      "200": 1748,
      "aken": 1749,
      "iated": 1750,
      "iter": 1751,
      "Ġappear": 1752,
      "Ġmembers": 1753,
      "Ġrights": 1754,
      "Ġhead": 1755,
      "Ġshort": 1756,
      "ĠâĢĺ": 1757,
      "Ġsomething": 1758,
      "duct": 1759,
      "Ġpopulation": 1760,
      "sp": 1761,
      "Ġlet": 1762,
      "ĠOr": 1763,
      "Ġsite": 1764,
      "Ġhowever": 1765,
      "Ġassoc": 1766,
      "iness": 1767,
      "ĠBy": 1768,
      "atory": 1769,
      "Ġchem": 1770,
      "ised": 1771,
      "Ġey": 1772,
      "Ġcancer": 1773,
      "ĠWor": 1774,
      "Ġhapp": 1775,
      "be": 1776,
      "Ġpast": 1777,
      "Ġfunction": 1778,
      "alt": 1779,
      "ĠThat": 1780,
      "rel": 1781,
      "ivity": 1782,
      "Ġlevels": 1783,
      "Ġexist": 1784,
      "Ġcome": 1785,
      "vious": 1786,
      "ung": 1787,
      "ication": 1788,
      "Ġdrug": 1789,
      "Ġword": 1790,
      "rate": 1791,
      "Ġer": 1792,
      "Ġage": 1793,
      "Ġdue": 1794,
      "SA": 1795,
      "ĠWith": 1796,
      "ank": 1797,
      "of": 1798,
      "Ġhaving": 1799,
      "Ġresearc": 1800,
      "Ġspace": 1801,
      "Ġresults": 1802,
      "val": 1803,
      "aster": 1804,
      "Ġlay": 1805,
      "ĠHis": 1806,
      "ortun": 1807,
      "Ġworks": 1808,
      "ode": 1809,
      "ocus": 1810,
      "earch": 1811,
      "Ġdoct": 1812,
      "Ġbenef": 1813,
      "Ġz": 1814,
      "Ġlittle": 1815,
      "Ġnever": 1816,
      "Ġspecific": 1817,
      "Ġeffects": 1818,
      "nal": 1819,
      "ream": 1820,
      "ird": 1821,
      "aining": 1822,
      "Ġ--": 1823,
      "Ġsw": 1824,
      "let": 1825,
      "Ġnecess": 1826,
      "Ġ30": 1827,
      "cop": 1828,
      "Ġill": 1829,
      "istic": 1830,
      "agement": 1831,
      "oint": 1832,
      "Ġ.": 1833,
      "Ġcal": 1834,
      "rap": 1835,
      "Ġplants": 1836,
      "Ġemploy": 1837,
      "Ġsystems": 1838,
      "lement": 1839,
      "Ġgeneral": 1840,
      "Ġcity": 1841,
      "ĠWar": 1842,
      "selves": 1843,
      "Ġcharacter": 1844,
      "Ġmult": 1845,
      "Ġsex": 1846,
      "Ġusually": 1847,
      "ecially": 1848,
      "ule": 1849,
      "Ġfil": 1850,
      "Ġgre": 1851,
      "Ġstep": 1852,
      "Ġlikely": 1853,
      "Ġspecial": 1854,
      "pr": 1855,
      "rid": 1856,
      "ront": 1857,
      "Ġoil": 1858,
      "ĠJohn": 1859,
      "for": 1860,
      "ipp": 1861,
      "Ġ14": 1862,
      "Ġsimilar": 1863,
      "ges": 1864,
      "Ġbook": 1865,
      "Ġbegin": 1866,
      "Ġstudies": 1867,
      "ively": 1868,
      "Ġprim": 1869,
      "ane": 1870,
      "Ġprote": 1871,
      "Ġdeath": 1872,
      "Ġprofess": 1873,
      "Ġterm": 1874,
      "Ġla": 1875,
      "gress": 1876,
      "most": 1877,
      "Ġground": 1878,
      "Ġinvest": 1879,
      "ules": 1880,
      "Ġindust": 1881,
      "sw": 1882,
      "Ġ$": 1883,
      "Ġesp": 1884,
      "ribut": 1885,
      "Ġvarious": 1886,
      "ma": 1887,
      "Ġdays": 1888,
      "Ġlower": 1889,
      "ruction": 1890,
      "Ġhigher": 1891,
      "mp": 1892,
      "not": 1893,
      "Ġdem": 1894,
      "Ġenc": 1895,
      "Ġdifficult": 1896,
      "Ġknowledge": 1897,
      "ĠGerm": 1898,
      "Ġtechnology": 1899,
      "iam": 1900,
      "ox": 1901,
      "Ġvol": 1902,
      "Ġbecame": 1903,
      "Ġtype": 1904,
      "Ġchanges": 1905,
      "min": 1906,
      "aces": 1907,
      "Ġeducation": 1908,
      "ead": 1909,
      "Ġitself": 1910,
      "Ġalong": 1911,
      "ending": 1912,
      "Ġnetwork": 1913,
      "ires": 1914,
      "rated": 1915,
      "ĠBl": 1916,
      "ĠGen": 1917,
      "Ġyoun": 1918,
      "asing": 1919,
      "ĠAfter": 1920,
      "ency": 1921,
      "Ġfail": 1922,
      "Ġincrease": 1923,
      "Ġtoget": 1924,
      "eter": 1925,
      "Ġ11": 1926,
      "Ġupon": 1927,
      "Ġrespons": 1928,
      "Ġtogether": 1929,
      "ĠAf": 1930,
      "ott": 1931,
      "Ġvir": 1932,
      "Ġdeveloped": 1933,
      "mber": 1934,
      "ones": 1935,
      "Ġfocus": 1936,
      "ications": 1937,
      "uture": 1938,
      "ĠMay": 1939,
      "ĠGe": 1940,
      "Ġconditions": 1941,
      "Ġconcer": 1942,
      "erence": 1943,
      "rict": 1944,
      "hib": 1945,
      "ming": 1946,
      "eds": 1947,
      "Ġseen": 1948,
      "Ġworking": 1949,
      "Ġcomplete": 1950,
      "Ġthought": 1951,
      "Ġfra": 1952,
      "Ġenough": 1953,
      "ĠEarth": 1954,
      "wh": 1955,
      "iting": 1956,
      "ots": 1957,
      "Ġask": 1958,
      "ĠDr": 1959,
      "ĠRep": 1960,
      "Ġneg": 1961,
      "\".": 1962,
      "ĠFl": 1963,
      "Ġfall": 1964,
      "omm": 1965,
      "Ġespecially": 1966,
      "ĠWorld": 1967,
      "ĠBrit": 1968,
      "Ġinflu": 1969,
      "Ġrelations": 1970,
      "Ġneeds": 1971,
      "Ġpolitical": 1972,
      "Ġsignificant": 1973,
      "Ġsent": 1974,
      "ley": 1975,
      "ĠCal": 1976,
      "Ġevidence": 1977,
      "Ġstrong": 1978,
      "nam": 1979,
      "eb": 1980,
      "Ġopt": 1981,
      "enn": 1982,
      "iment": 1983,
      "Ġsun": 1984,
      "ĠGo": 1985,
      "ublic": 1986,
      "Ġsubst": 1987,
      "Ġrequire": 1988,
      "Ġlearning": 1989,
      "Ġprotect": 1990,
      "Ġside": 1991,
      "anc": 1992,
      "lection": 1993,
      "Ġnext": 1994,
      "Ġsubject": 1995,
      "Ġsingle": 1996,
      "by": 1997,
      "thing": 1998,
      "ĠUS": 1999,
      "Ġpolic": 2000,
      "Ġcirc": 2001,
      "Ġrather": 2002,
      "ormal": 2003,
      "Ġregion": 2004,
      "put": 2005,
      "Ġfurther": 2006,
      "Ġconsider": 2007,
      "Ġactivity": 2008,
      "Ġtoday": 2009,
      "Ġimpact": 2010,
      "ĠYork": 2011,
      "Ġlearn": 2012,
      "Ġaway": 2013,
      "Ġfive": 2014,
      "ours": 2015,
      "Ġkind": 2016,
      "Ġsens": 2017,
      "ĠSouth": 2018,
      "osis": 2019,
      "ember": 2020,
      "Ġwhether": 2021,
      "Ġevent": 2022,
      "elf": 2023,
      "ocu": 2024,
      "ffic": 2025,
      "ready": 2026,
      "Ġsource": 2027,
      "icro": 2028,
      "ysis": 2029,
      "Ġexpress": 2030,
      "itor": 2031,
      "abit": 2032,
      "Ġincreased": 2033,
      "--": 2034,
      "Ġwat": 2035,
      "ĠCont": 2036,
      "aves": 2037,
      "Ġresearchers": 2038,
      "Ġhar": 2039,
      "ĠCons": 2040,
      "Ġprob": 2041,
      "ators": 2042,
      "Ġthemselves": 2043,
      "Ġcreate": 2044,
      "Ġactivities": 2045,
      "Ġast": 2046,
      "Ġfull": 2047,
      "Ġfield": 2048,
      "Ġhouse": 2049,
      "Ġteam": 2050,
      "Ġtry": 2051,
      "Ġflow": 2052,
      "ournal": 2053,
      "itted": 2054,
      "Ġhistor": 2055,
      "oot": 2056,
      "Ġess": 2057,
      "Ġmov": 2058,
      "Ġmaking": 2059,
      "Ġeither": 2060,
      "Ġsepar": 2061,
      "Ġimm": 2062,
      "ibility": 2063,
      "fer": 2064,
      "ilt": 2065,
      "Ġwhole": 2066,
      "Ġobserv": 2067,
      "Ġcreat": 2068,
      "Ġbelow": 2069,
      "Ġexperience": 2070,
      "Ġphysical": 2071,
      "ĠMore": 2072,
      "ĠPol": 2073,
      "itary": 2074,
      "Ġbrain": 2075,
      "Ġdr": 2076,
      "ulations": 2077,
      "Ġteac": 2078,
      "right": 2079,
      "rie": 2080,
      "Ġkill": 2081,
      "ĠState": 2082,
      "Ġfamil": 2083,
      "Ġgrowth": 2084,
      "ttp": 2085,
      "Ġnational": 2086,
      "side": 2087,
      "Ġwind": 2088,
      "Ġmag": 2089,
      "Ġeconomic": 2090,
      "gest": 2091,
      "Ġfund": 2092,
      "Ġwhy": 2093,
      "Ġresources": 2094,
      "Ġarg": 2095,
      "ique": 2096,
      "Ġlanguage": 2097,
      "cil": 2098,
      "Ġalready": 2099,
      "Ġtemperature": 2100,
      "Ġalways": 2101,
      "Ġkey": 2102,
      "lim": 2103,
      "lam": 2104,
      "Ġlive": 2105,
      "Ġ197": 2106,
      "iol": 2107,
      "Ġsix": 2108,
      "Ġhalf": 2109,
      "ĠII": 2110,
      "Ġstat": 2111,
      "ĠMus": 2112,
      "Ġclaim": 2113,
      "Ġrole": 2114,
      "ĠHealth": 2115,
      "ĠWhile": 2116,
      "ai": 2117,
      "Ġsize": 2118,
      "Ġcop": 2119,
      "ĠMar": 2120,
      "Ġann": 2121,
      "Ġparticip": 2122,
      "Ġgroups": 2123,
      "Ġwr": 2124,
      "ann": 2125,
      "Ġdam": 2126,
      "Ġphot": 2127,
      "ĠMin": 2128,
      "Ġwhite": 2129,
      "ĠResearch": 2130,
      "ches": 2131,
      "Ġri": 2132,
      "rown": 2133,
      "ĠShe": 2134,
      "Ġsoft": 2135,
      "Ġacross": 2136,
      "15": 2137,
      "Ġfish": 2138,
      "Ġdest": 2139,
      "ederal": 2140,
      "Ġconduct": 2141,
      "bon": 2142,
      "Ġinteract": 2143,
      "Ġglobal": 2144,
      ".)": 2145,
      "ee": 2146,
      "Ġ50": 2147,
      "Ġanimals": 2148,
      "13": 2149,
      "17": 2150,
      "son": 2151,
      "Ġsum": 2152,
      "estern": 2153,
      "ĠCar": 2154,
      "overed": 2155,
      "Ġcomplex": 2156,
      "Ġfrequ": 2157,
      "af": 2158,
      "cle": 2159,
      "Ġfuture": 2160,
      "Ġgas": 2161,
      "chie": 2162,
      "ump": 2163,
      "ĠNo": 2164,
      "epend": 2165,
      "Ġaccording": 2166,
      "Ġproduction": 2167,
      "app": 2168,
      "Ġline": 2169,
      "Ġgive": 2170,
      "Ġaddress": 2171,
      "ĠEnglish": 2172,
      "Ġweight": 2173,
      "ĠAmerica": 2174,
      "//": 2175,
      "ĠAss": 2176,
      "ĠCanad": 2177,
      "ĠAfric": 2178,
      "sc": 2179,
      "atures": 2180,
      "etimes": 2181,
      "ĠStud": 2182,
      "Ġfeel": 2183,
      "ĠJewish": 2184,
      "Ġquestion": 2185,
      "Ġwild": 2186,
      "Ġmeet": 2187,
      "Ġgoing": 2188,
      "Ġdone": 2189,
      "omes": 2190,
      "Ġproducts": 2191,
      "oes": 2192,
      "het": 2193,
      "Ġways": 2194,
      "ĠAust": 2195,
      "Ġprovides": 2196,
      "Ġchemical": 2197,
      "sh": 2198,
      "Ġwide": 2199,
      "ĠAm": 2200,
      "Ġstates": 2201,
      "Ġonce": 2202,
      "artment": 2203,
      "rought": 2204,
      "Ġmodern": 2205,
      "hing": 2206,
      "reg": 2207,
      "Ġnature": 2208,
      "ĠAlthough": 2209,
      "atives": 2210,
      "Ġpage": 2211,
      "Ġinit": 2212,
      "Ġreally": 2213,
      "Ġtaken": 2214,
      "Ġloss": 2215,
      "like": 2216,
      "oman": 2217,
      "Ġrecogn": 2218,
      "30": 2219,
      "Ġbig": 2220,
      "Ġdi": 2221,
      "Ġcannot": 2222,
      "Ġpatients": 2223,
      "Ġreturn": 2224,
      "urity": 2225,
      "Ġdisord": 2226,
      "Ġliving": 2227,
      "verage": 2228,
      "Ġrange": 2229,
      "Ġtext": 2230,
      "14": 2231,
      "Ġtown": 2232,
      "Ġdom": 2233,
      "Ġrelative": 2234,
      "Ġflu": 2235,
      "Ġconsidered": 2236,
      "://": 2237,
      "ints": 2238,
      "ĠAcc": 2239,
      "Ġmodel": 2240,
      "Ġprograms": 2241,
      "stitute": 2242,
      "Ġbuilding": 2243,
      "lo": 2244,
      "Ġconcept": 2245,
      "Ġclose": 2246,
      "Ġprinc": 2247,
      "stitution": 2248,
      "reme": 2249,
      "Ġmakes": 2250,
      "Ġdia": 2251,
      "ĠDav": 2252,
      "Ġ25": 2253,
      "iple": 2254,
      "Ġrecent": 2255,
      "Ġneeded": 2256,
      "Ġtoward": 2257,
      "ĠPe": 2258,
      "aged": 2259,
      "Ġmedical": 2260,
      "Ġcomputer": 2261,
      "dom": 2262,
      "Ġcoun": 2263,
      "ĠCenter": 2264,
      "iate": 2265,
      "yl": 2266,
      "ences": 2267,
      "Ġsuper": 2268,
      "Ġcho": 2269,
      "ĠKing": 2270,
      "augh": 2271,
      "iddle": 2272,
      "roll": 2273,
      "Ġcontact": 2274,
      "ched": 2275,
      "ĠÂ": 2276,
      "Ġansw": 2277,
      "ĠDep": 2278,
      "Ġscience": 2279,
      "ĠJews": 2280,
      "Ġscientists": 2281,
      "Ġinvolved": 2282,
      "ID": 2283,
      "Ġinternational": 2284,
      "icine": 2285,
      "Ġhold": 2286,
      "igure": 2287,
      "ĠMany": 2288,
      "Ġparts": 2289,
      "ae": 2290,
      "Ġport": 2291,
      "ows": 2292,
      "Ġ100": 2293,
      "Ġpublished": 2294,
      "Ġvalue": 2295,
      "16": 2296,
      "Ġtell": 2297,
      "ened": 2298,
      "org": 2299,
      "acy": 2300,
      "Ġrelated": 2301,
      "Ġindic": 2302,
      "Ġrequired": 2303,
      "Ġquestions": 2304,
      "Ġtool": 2305,
      "Ġreason": 2306,
      "Ġabs": 2307,
      "Ġdocu": 2308,
      "Ġred": 2309,
      "vere": 2310,
      "Ġstri": 2311,
      "Ġalmost": 2312,
      "ĠHist": 2313,
      "ervation": 2314,
      "Ã©": 2315,
      "oura": 2316,
      "Ġtot": 2317,
      "ĠCD": 2318,
      "Ġidea": 2319,
      "ER": 2320,
      "Ġsense": 2321,
      "lex": 2322,
      "ĠNe": 2323,
      "Ġ196": 2324,
      "Ġperm": 2325,
      "Ġjud": 2326,
      "Ġtradition": 2327,
      "atter": 2328,
      "Ġblack": 2329,
      "Ġ2012": 2330,
      "Ġskin": 2331,
      "Ġbehav": 2332,
      "Ġyoung": 2333,
      "my": 2334,
      "port": 2335,
      "uel": 2336,
      "ume": 2337,
      "Ġreported": 2338,
      "Ġcame": 2339,
      "ales": 2340,
      "Ġdig": 2341,
      "lying": 2342,
      "Ġanc": 2343,
      "umb": 2344,
      "Ġapproach": 2345,
      "Ġsitu": 2346,
      "ech": 2347,
      "ites": 2348,
      "Ġparents": 2349,
      "inary": 2350,
      "Ġcollect": 2351,
      "Ġaccount": 2352,
      "Ġcreated": 2353,
      "Ġissues": 2354,
      "urch": 2355,
      "Ġentire": 2356,
      "Ġstandard": 2357,
      "olec": 2358,
      "Ġbusiness": 2359,
      "Ġver": 2360,
      "Ġsound": 2361,
      "Ġcr": 2362,
      "Ġtook": 2363,
      "Ġrepl": 2364,
      "Ġrelig": 2365,
      "ney": 2366,
      "PA": 2367,
      "Ġmind": 2368,
      "ried": 2369,
      "ĠJu": 2370,
      "Ġsym": 2371,
      "aut": 2372,
      "lt": 2373,
      "Ġ/": 2374,
      "Ġforms": 2375,
      "Ġcolor": 2376,
      "Ġactually": 2377,
      "Ġregard": 2378,
      "go": 2379,
      "Ġens": 2380,
      "Ġclimate": 2381,
      "Ġsurv": 2382,
      "Ġestablished": 2383,
      "rect": 2384,
      "ĠPer": 2385,
      "Ġinterp": 2386,
      "Ġachie": 2387,
      "ery": 2388,
      "Ġlib": 2389,
      "ateg": 2390,
      "Ġweek": 2391,
      "Ġpotential": 2392,
      "ym": 2393,
      "Ġpay": 2394,
      "Ġmass": 2395,
      "ĠMost": 2396,
      "ope": 2397,
      "aced": 2398,
      "Ġ2010": 2399,
      "Ġforce": 2400,
      "amb": 2401,
      "istance": 2402,
      "Ġheart": 2403,
      "Ġquality": 2404,
      "Ġarticle": 2405,
      "Ġpriv": 2406,
      "fact": 2407,
      "ging": 2408,
      "aring": 2409,
      "Ġbegan": 2410,
      "Ġstory": 2411,
      "ification": 2412,
      "Ġmaterials": 2413,
      "'re": 2414,
      "ĠX": 2415,
      "Ġut": 2416,
      "Ġcamp": 2417,
      "Ġpath": 2418,
      "utes": 2419,
      "rab": 2420,
      "now": 2421,
      "Ġce": 2422,
      "Ġtypes": 2423,
      "Ġfront": 2424,
      "Ġintrodu": 2425,
      "Ġofficial": 2426,
      "izing": 2427,
      "Th": 2428,
      "erous": 2429,
      "Ġcle": 2430,
      "Ġreduce": 2431,
      "Ġmeasure": 2432,
      "__": 2433,
      "eding": 2434,
      "urs": 2435,
      "uls": 2436,
      "ĠDNA": 2437,
      "ext": 2438,
      "Ġengine": 2439,
      "view": 2440,
      "Ġsqu": 2441,
      "Ġep": 2442,
      "Ġyet": 2443,
      "Ġsure": 2444,
      "Ġcontent": 2445,
      "Ġprison": 2446,
      "Ġmemory": 2447,
      "ĠChristian": 2448,
      "Ġpaper": 2449,
      "icles": 2450,
      "ections": 2451,
      "Ġability": 2452,
      "Ġproduce": 2453,
      "Ġopportun": 2454,
      "Ġcit": 2455,
      "empt": 2456,
      "Ġchall": 2457,
      "Ġmanagement": 2458,
      "ĠChina": 2459,
      "ĠViet": 2460,
      "Ġshows": 2461,
      "Ġenvironmental": 2462,
      "Ġdoctor": 2463,
      "Ġfile": 2464,
      "Ġhttp": 2465,
      "Ġjob": 2466,
      "Ġpractice": 2467,
      "Ġunderstanding": 2468,
      "Ġur": 2469,
      "sect": 2470,
      "ensive": 2471,
      "Ġnecessary": 2472,
      "sequ": 2473,
      "ables": 2474,
      "aches": 2475,
      "ĠGu": 2476,
      "Ġprevious": 2477,
      "oney": 2478,
      "Ġdeveloping": 2479,
      "ober": 2480,
      "ister": 2481,
      "igation": 2482,
      "acc": 2483,
      "Ġseries": 2484,
      "Ġthreat": 2485,
      "vey": 2486,
      "Ġexerc": 2487,
      "ription": 2488,
      "Ġdetail": 2489,
      "pos": 2490,
      "Ġemer": 2491,
      "ĠSec": 2492,
      "ĠGra": 2493,
      "ĠOther": 2494,
      "ights": 2495,
      "Ġcentral": 2496,
      "Ġcivil": 2497,
      "Ġfa": 2498,
      "ĠCo": 2499,
      "Ġdemon": 2500,
      "ival": 2501,
      "ĠJan": 2502,
      "Ġrelationship": 2503,
      "Ġir": 2504,
      "Ġsea": 2505,
      "sych": 2506,
      ");": 2507,
      "Ġbar": 2508,
      "chan": 2509,
      "usion": 2510,
      "Ġtraining": 2511,
      "Ġgenetic": 2512,
      "Ġearth": 2513,
      "Ġdesigned": 2514,
      "ising": 2515,
      "ille": 2516,
      "Ġlink": 2517,
      "Ġconcent": 2518,
      "25": 2519,
      "Ġled": 2520,
      "abor": 2521,
      "aching": 2522,
      "Ġrecomm": 2523,
      "Ġaccept": 2524,
      "Ġimprove": 2525,
      "ety": 2526,
      "ĠMan": 2527,
      "ĠHar": 2528,
      "Ġvill": 2529,
      "Ġviol": 2530,
      "ptoms": 2531,
      "ips": 2532,
      "Ġtrue": 2533,
      "ES": 2534,
      "xic": 2535,
      "Ġgreater": 2536,
      "Ġdemonst": 2537,
      "lies": 2538,
      "ĠApp": 2539,
      "Ġmonths": 2540,
      "ply": 2541,
      "Ġmor": 2542,
      "asc": 2543,
      "ĠTra": 2544,
      "ript": 2545,
      "ĠSee": 2546,
      "Ġmusic": 2547,
      "hest": 2548,
      "Ġcontain": 2549,
      "Ġstudent": 2550,
      "ĠPres": 2551,
      "Ġshown": 2552,
      "Ġstructure": 2553,
      "Ġassociated": 2554,
      "Ġprotein": 2555,
      "uary": 2556,
      "Ġsources": 2557,
      "lege": 2558,
      "oll": 2559,
      "Ġdeg": 2560,
      "Ġarch": 2561,
      "ĠChar": 2562,
      "Ġsett": 2563,
      "Ġbirth": 2564,
      "Ġprovided": 2565,
      "Ġtheory": 2566,
      "Ġsam": 2567,
      "ington": 2568,
      "Ġdiv": 2569,
      "imum": 2570,
      "Ġconc": 2571,
      "ush": 2572,
      "Ġheld": 2573,
      "Ġbuilt": 2574,
      "Ġterms": 2575,
      "life": 2576,
      "arily": 2577,
      "Ġliter": 2578,
      "ĠMe": 2579,
      "adem": 2580,
      "ternal": 2581,
      "Ġconsum": 2582,
      "gram": 2583,
      "Ġfactors": 2584,
      "Ġscientific": 2585,
      "www": 2586,
      "ĠAccording": 2587,
      "haps": 2588,
      "Ġvers": 2589,
      "ĠFran": 2590,
      "Ġsoil": 2591,
      "Ġthroughout": 2592,
      "Ġproduced": 2593,
      "Ġeffective": 2594,
      "ĠCalif": 2595,
      "esc": 2596,
      "Ġthird": 2597,
      "ĠInt": 2598,
      "ĠHum": 2599,
      "Ġsearch": 2600,
      "Ġelectric": 2601,
      "Ġmatter": 2602,
      "Ġanalysis": 2603,
      "Ġtotal": 2604,
      "Ġadult": 2605,
      "ĠChild": 2606,
      "ĠComp": 2607,
      "Ġcontinued": 2608,
      "Ġmaint": 2609,
      "Ġlegal": 2610,
      "Ġmarket": 2611,
      "Ġsection": 2612,
      "Ġsouth": 2613,
      "Ġself": 2614,
      "aries": 2615,
      "Ġnuc": 2616,
      "ĠIran": 2617,
      "ching": 2618,
      "Ġstop": 2619,
      "ĠNow": 2620,
      "ĠUN": 2621,
      "Ġimage": 2622,
      "Ġgene": 2623,
      "imately": 2624,
      "Ġever": 2625,
      "Ġrate": 2626,
      "Ġevents": 2627,
      "Ġlonger": 2628,
      "Ġrespect": 2629,
      "attle": 2630,
      "Ġfri": 2631,
      "Ġlot": 2632,
      "Ġnorth": 2633,
      "ĠIm": 2634,
      "Ġcompl": 2635,
      "Ġmechan": 2636,
      "Ġtravel": 2637,
      "Ġincreasing": 2638,
      "Ġissue": 2639,
      "ĠQu": 2640,
      "Ġapplication": 2641,
      "bre": 2642,
      "uk": 2643,
      "Ġfru": 2644,
      "Ġreact": 2645,
      "Ġ40": 2646,
      "Ġmeaning": 2647,
      "Ġcut": 2648,
      "Ġwall": 2649,
      "amed": 2650,
      "Ġaltern": 2651,
      "ĠInternational": 2652,
      "arden": 2653,
      "Ġ2008": 2654,
      "Ġmilitary": 2655,
      "Ġlabor": 2656,
      "cell": 2657,
      "Ġheav": 2658,
      "Ġinteg": 2659,
      "reng": 2660,
      "Ġ2007": 2661,
      "Ġsimple": 2662,
      "ĠBritish": 2663,
      "ius": 2664,
      "pri": 2665,
      "Ġcat": 2666,
      "ĠEd": 2667,
      "ĠPr": 2668,
      "rial": 2669,
      "ached": 2670,
      "Ġuses": 2671,
      "Ġbasic": 2672,
      "Ġfamilies": 2673,
      "Ġaction": 2674,
      "ask": 2675,
      "Ġhabit": 2676,
      "Ġking": 2677,
      "vention": 2678,
      "ronic": 2679,
      "ĠPhil": 2680,
      "Ġdou": 2681,
      "ief": 2682,
      "uck": 2683,
      "Ġsoftware": 2684,
      "ĠInf": 2685,
      "Ġoutside": 2686,
      "Ġtherefore": 2687,
      "ĠScience": 2688,
      "Ġcourt": 2689,
      "Ġwritten": 2690,
      "Ġetc": 2691,
      "nces": 2692,
      "erve": 2693,
      "enc": 2694,
      "Ġmount": 2695,
      "ĠAc": 2696,
      "ĠPark": 2697,
      "Ġwhose": 2698,
      "estic": 2699,
      "acks": 2700,
      "Ġevolution": 2701,
      "Ġindepend": 2702,
      "minist": 2703,
      "ĠMuslim": 2704,
      "ĠDavid": 2705,
      "Ġtaking": 2706,
      "Ġtax": 2707,
      "Ġfat": 2708,
      "Ġlog": 2709,
      "ĠSu": 2710,
      "ĠPre": 2711,
      "ĠPart": 2712,
      "Ġheat": 2713,
      "Ġ24": 2714,
      "Ġspread": 2715,
      "ĠInter": 2716,
      "Ġ2006": 2717,
      "fully": 2718,
      "Ġtests": 2719,
      "Ġvisit": 2720,
      "Ġposition": 2721,
      "rapy": 2722,
      "Ġprobably": 2723,
      "hood": 2724,
      "oor": 2725,
      "Ġdiet": 2726,
      "Ġthus": 2727,
      "Ġste": 2728,
      "199": 2729,
      "Ġinj": 2730,
      "Ġthous": 2731,
      "cean": 2732,
      "ĠBo": 2733,
      "Ġ194": 2734,
      "):": 2735,
      "rary": 2736,
      "ĠNA": 2737,
      "Ġimplement": 2738,
      "Ġpoll": 2739,
      "Ġcaused": 2740,
      "Ġoriginal": 2741,
      "Ġ,": 2742,
      "Ġcy": 2743,
      "Ġthing": 2744,
      "uth": 2745,
      "ĠPress": 2746,
      "Ġrefer": 2747,
      "Ġsymptoms": 2748,
      "based": 2749,
      "Ġmolec": 2750,
      "Ġdy": 2751,
      "Ġprec": 2752,
      "Ġ2011": 2753,
      "Ġseems": 2754,
      "ĠAnt": 2755,
      "Ġgreen": 2756,
      "oper": 2757,
      "ĠWill": 2758,
      "ĠRec": 2759,
      "Ġpred": 2760,
      "Ġcommunities": 2761,
      "Ġcarbon": 2762,
      "Ġparticularly": 2763,
      "ners": 2764,
      "Ġaff": 2765,
      "ĠTr": 2766,
      "Ġnormal": 2767,
      "ĠRiver": 2768,
      "Ġvide": 2769,
      "Ġ21": 2770,
      "ĠDepartment": 2771,
      "pro": 2772,
      "amin": 2773,
      "Ġdeb": 2774,
      "ĠWash": 2775,
      "ĠFrom": 2776,
      "Ġquick": 2777,
      "Ġavoid": 2778,
      "Ġmethods": 2779,
      "Ġdescribed": 2780,
      "pril": 2781,
      "Ġpolicy": 2782,
      "Ġwin": 2783,
      "uries": 2784,
      "ĠJune": 2785,
      "undred": 2786,
      "Ġcapital": 2787,
      "Ġorigin": 2788,
      "Ġdrugs": 2789,
      "Ġbul": 2790,
      "Ġbacter": 2791,
      "Ġhor": 2792,
      "ades": 2793,
      "istics": 2794,
      "ĠInstitute": 2795,
      "Ġago": 2796,
      "Ġhours": 2797,
      "rael": 2798,
      "Ġstra": 2799,
      "ops": 2800,
      "pper": 2801,
      "ĠGl": 2802,
      "iction": 2803,
      "Ġestim": 2804,
      "Ġcontinue": 2805,
      "iences": 2806,
      "Ġprimary": 2807,
      "mosp": 2808,
      "Ġaid": 2809,
      "isms": 2810,
      "Ġprogress": 2811,
      "ĠDuring": 2812,
      "Ġconsist": 2813,
      "Ġcoll": 2814,
      "Ġremov": 2815,
      "ON": 2816,
      "Ġaverage": 2817,
      "inks": 2818,
      "Ġbur": 2819,
      "Ġcondition": 2820,
      "aving": 2821,
      "Ġemb": 2822,
      "Ġnumbers": 2823,
      "Ġdefin": 2824,
      "ĠDevelop": 2825,
      "Ġsometimes": 2826,
      "ornia": 2827,
      "ength": 2828,
      "Ġbelieve": 2829,
      "Ġeye": 2830,
      "aff": 2831,
      "ties": 2832,
      "Ġslow": 2833,
      "arr": 2834,
      "lease": 2835,
      "ĠAg": 2836,
      "thern": 2837,
      "Ġexpos": 2838,
      "Ġassess": 2839,
      "lied": 2840,
      "Ġfib": 2841,
      "Ġstreng": 2842,
      "udd": 2843,
      "Ġgrowing": 2844,
      "Ġcauses": 2845,
      "Ġmagn": 2846,
      "ĠCalifornia": 2847,
      "oon": 2848,
      "onse": 2849,
      "ĠKe": 2850,
      "Ġ2009": 2851,
      "Ġincludes": 2852,
      "Ġattempt": 2853,
      "Ġwriting": 2854,
      "Ġmovement": 2855,
      "ĠCount": 2856,
      "Ġalthough": 2857,
      "aging": 2858,
      "ĠVal": 2859,
      "Ġservices": 2860,
      "Ġsat": 2861,
      "Ġpict": 2862,
      "Ġmoney": 2863,
      "utions": 2864,
      "ribution": 2865,
      "issions": 2866,
      "Ġpattern": 2867,
      "Ġhyd": 2868,
      "Ġreceived": 2869,
      "ĠEuropean": 2870,
      "Ġcalc": 2871,
      "Ġsou": 2872,
      "Ġful": 2873,
      "Ġpoor": 2874,
      "Ġmedia": 2875,
      "Ġgenerally": 2876,
      "Ġsimply": 2877,
      "Ġadditional": 2878,
      "hold": 2879,
      "ns": 2880,
      "Ġtalk": 2881,
      "ĠCong": 2882,
      "ĠDo": 2883,
      "Â°": 2884,
      "duc": 2885,
      "Ġcompared": 2886,
      "ĠIndia": 2887,
      "ĠUs": 2888,
      "Ġappropri": 2889,
      "Ġeffic": 2890,
      "Ġperformance": 2891,
      "It": 2892,
      "Ġaud": 2893,
      "Ġbit": 2894,
      "Ġdeep": 2895,
      "Ġcomes": 2896,
      "Ġincluded": 2897,
      "lands": 2898,
      "Ġvariety": 2899,
      "Ġmix": 2900,
      "ĠMor": 2901,
      "ĠOf": 2902,
      "Ġcapt": 2903,
      "Ġschools": 2904,
      "Ġbring": 2905,
      "Ġmother": 2906,
      "Ġlate": 2907,
      "Ġsust": 2908,
      "Ġnews": 2909,
      "ĠIsrael": 2910,
      "Ġculture": 2911,
      "Ġcheck": 2912,
      "alu": 2913,
      "Ġface": 2914,
      "ĠAug": 2915,
      "ĠCor": 2916,
      "Ġlimited": 2917,
      "Ġjo": 2918,
      "Ġfeet": 2919,
      "Ġservice": 2920,
      "Ġbehind": 2921,
      "oly": 2922,
      "Ġtrade": 2923,
      "rench": 2924,
      "rast": 2925,
      "ino": 2926,
      "Ġden": 2927,
      "Ġnation": 2928,
      "ĠApril": 2929,
      "ĠBar": 2930,
      "abet": 2931,
      "Ġforest": 2932,
      "Ġindividuals": 2933,
      "unting": 2934,
      "AT": 2935,
      "where": 2936,
      "Ġsed": 2937,
      "Ġhundred": 2938,
      "ĠPers": 2939,
      "Ġ2005": 2940,
      "icking": 2941,
      "ĠIndian": 2942,
      "Ġpersonal": 2943,
      "Ġdiagn": 2944,
      "ĠCity": 2945,
      "hern": 2946,
      "ĠHere": 2947,
      "used": 2948,
      "ĠOb": 2949,
      "apan": 2950,
      "Ġregular": 2951,
      "Ġserious": 2952,
      "Ġnearly": 2953,
      "IT": 2954,
      "We": 2955,
      "overy": 2956,
      "Ġbab": 2957,
      "Ġbrought": 2958,
      "Ġfire": 2959,
      "arian": 2960,
      "Ġmess": 2961,
      "âĢ¦": 2962,
      "ĠFirst": 2963,
      "ricult": 2964,
      "Ġinstead": 2965,
      "Ġdetermine": 2966,
      "Ġap": 2967,
      "Ġsus": 2968,
      "Ġge": 2969,
      "ulate": 2970,
      "Ġreflect": 2971,
      "Ġbooks": 2972,
      "gency": 2973,
      "Ġcapac": 2974,
      "ira": 2975,
      "Ġlack": 2976,
      "istry": 2977,
      "osoph": 2978,
      "Ġsequ": 2979,
      "Ġselect": 2980,
      "Ġspir": 2981,
      "ecause": 2982,
      "ĠRead": 2983,
      "Ġbroad": 2984,
      "Ġindustry": 2985,
      "ĠGerman": 2986,
      "ĠTw": 2987,
      "ĠSchool": 2988,
      "Ġsuff": 2989,
      "Ġactive": 2990,
      "Ġdecl": 2991,
      "Ġidentify": 2992,
      "Ġbeginning": 2993,
      "Ġwaters": 2994,
      "ĠJuly": 2995,
      "ening": 2996,
      "Ġfederal": 2997,
      "ancy": 2998,
      "rogen": 2999,
      "ĠSm": 3000,
      "ĠRuss": 3001,
      "ĠLaw": 3002,
      "ĠOct": 3003,
      "Ġagree": 3004,
      "Ġdirectly": 3005,
      "Ġbreak": 3006,
      "ĠJanuary": 3007,
      "22": 3008,
      "ores": 3009,
      "Ġox": 3010,
      "itte": 3011,
      "Ġmill": 3012,
      "Ġlost": 3013,
      "Ġonline": 3014,
      "Ġextreme": 3015,
      "ĠAustral": 3016,
      "ĠWashington": 3017,
      "ida": 3018,
      "ĠCast": 3019,
      "isions": 3020,
      "Ġbr": 3021,
      "Ġmach": 3022,
      "Ġec": 3023,
      "Ġreve": 3024,
      "ulated": 3025,
      "ression": 3026,
      "Ġefforts": 3027,
      "Ġbirds": 3028,
      "In": 3029,
      "OR": 3030,
      "eed": 3031,
      "orthern": 3032,
      "Ġspeak": 3033,
      "Ġtar": 3034,
      "erior": 3035,
      "Ġdog": 3036,
      "oles": 3037,
      "ĠMet": 3038,
      "Ġlaws": 3039,
      "AN": 3040,
      "ils": 3041,
      "Ġlives": 3042,
      "ads": 3043,
      "Ġcontains": 3044,
      "Ġcompon": 3045,
      "Ġremain": 3046,
      "Ġhimself": 3047,
      "Ġreading": 3048,
      "Ġanimal": 3049,
      "Ġsites": 3050,
      "Ġsafety": 3051,
      "ĠAssoc": 3052,
      "IN": 3053,
      "ham": 3054,
      "ror": 3055,
      "itation": 3056,
      "ĠJapan": 3057,
      "ellow": 3058,
      "ĠArt": 3059,
      "Ġprotection": 3060,
      "rance": 3061,
      "rest": 3062,
      "ĠWest": 3063,
      "Ġvict": 3064,
      "Ġshall": 3065,
      "Ġkids": 3066,
      "hens": 3067,
      "Ġadded": 3068,
      "Ġcarry": 3069,
      "Ġveget": 3070,
      "Ġapplications": 3071,
      "Ġsal": 3072,
      "ica": 3073,
      "ctions": 3074,
      "Ġexc": 3075,
      "Ġweb": 3076,
      "Ġworkers": 3077,
      "Ġpopular": 3078,
      "Ġskills": 3079,
      "EN": 3080,
      "bor": 3081,
      "Ġwa": 3082,
      "ises": 3083,
      "Ġbra": 3084,
      "term": 3085,
      "ĠEm": 3086,
      "Ġappe": 3087,
      "Ġevalu": 3088,
      "Ġlarger": 3089,
      "Ġcitiz": 3090,
      "ground": 3091,
      "ĠIS": 3092,
      "Ġacqu": 3093,
      "Ġfactor": 3094,
      "Ġgradu": 3095,
      "Ġwrite": 3096,
      "Ġdamage": 3097,
      "AR": 3098,
      "aul": 3099,
      "uous": 3100,
      "Ġcra": 3101,
      "Ġwent": 3102,
      "asons": 3103,
      "Ġdecre": 3104,
      "gery": 3105,
      "Ġreview": 3106,
      "Ġlayer": 3107,
      "Ġpack": 3108,
      "arm": 3109,
      "ĠCoun": 3110,
      "ĠMarch": 3111,
      "ĠHer": 3112,
      "Ġdeal": 3113,
      "riage": 3114,
      "ĠJournal": 3115,
      "elling": 3116,
      "ternet": 3117,
      "Ġgenes": 3118,
      "Ġcover": 3119,
      "Ġtransm": 3120,
      "Ġlaun": 3121,
      "uge": 3122,
      "Ġcross": 3123,
      "ĠMy": 3124,
      "Ġdead": 3125,
      "ĠGree": 3126,
      "Ġcompan": 3127,
      "Ġcorrect": 3128,
      "Ġsociety": 3129,
      "Ġmiles": 3130,
      "useum": 3131,
      "Ġproperty": 3132,
      "ĠSociety": 3133,
      "\",": 3134,
      "Ġtur": 3135,
      "Ġtakes": 3136,
      "inate": 3137,
      "edia": 3138,
      "Ġfather": 3139,
      "Ġord": 3140,
      "Ġ190": 3141,
      "ĠSocial": 3142,
      "wise": 3143,
      "Ġtoxic": 3144,
      "Ġhom": 3145,
      "Ġnamed": 3146,
      "see": 3147,
      "cember": 3148,
      "ĠCour": 3149,
      "Ġstream": 3150,
      "Ġproced": 3151,
      "ĠFeb": 3152,
      "Ġatmosp": 3153,
      "Ġrout": 3154,
      "gypt": 3155,
      "Ġvari": 3156,
      "Ġideas": 3157,
      "vest": 3158,
      "Ġmicro": 3159,
      "Ġdoing": 3160,
      "Ġprep": 3161,
      "ĠEnvironment": 3162,
      "Ġsecurity": 3163,
      "Ġclean": 3164,
      "ĠHuman": 3165,
      "ĠSim": 3166,
      "ĠSince": 3167,
      "ĠPar": 3168,
      "ĠFrench": 3169,
      "Ġ23": 3170,
      "Ġcoast": 3171,
      "ĠReg": 3172,
      "Ġdoesn": 3173,
      "Ġelse": 3174,
      "Ġdraw": 3175,
      "Ġnegative": 3176,
      "Ġbott": 3177,
      "anced": 3178,
      "ari": 3179,
      "Ġeight": 3180,
      "ĠEl": 3181,
      "Ġwebs": 3182,
      "Ġcompet": 3183,
      "Ġessential": 3184,
      "ĠCanada": 3185,
      "IC": 3186,
      "light": 3187,
      "itude": 3188,
      "ĠArab": 3189,
      "ided": 3190,
      "Ġexcept": 3191,
      "ĠEduc": 3192,
      "Ġpolice": 3193,
      "Ġhumans": 3194,
      "Ġlargest": 3195,
      "Ġoccurs": 3196,
      "Ġsexual": 3197,
      "come": 3198,
      "iology": 3199,
      "Ġtrib": 3200,
      "osition": 3201,
      "izations": 3202,
      "ĠVir": 3203,
      "Ġdrive": 3204,
      "Ġdocument": 3205,
      "Ġbehavior": 3206,
      "ĠNASA": 3207,
      "40": 3208,
      "rates": 3209,
      "Ġtend": 3210,
      "Ġsem": 3211,
      "orage": 3212,
      "Ġpsych": 3213,
      "Ġfav": 3214,
      "Ġfoot": 3215,
      "Ġreach": 3216,
      "Ġlands": 3217,
      "Ġgarden": 3218,
      "Ġformer": 3219,
      "ander": 3220,
      "aint": 3221,
      "Ġimmed": 3222,
      "Ġresponse": 3223,
      "Ġhealthy": 3224,
      "Ġobjects": 3225,
      "Ġtraditional": 3226,
      "Ġprivate": 3227,
      "27": 3228,
      "Wh": 3229,
      "mat": 3230,
      "alination": 3231,
      "leb": 3232,
      "iles": 3233,
      "ĠEven": 3234,
      "ĠEgypt": 3235,
      "apter": 3236,
      "Ġquite": 3237,
      "Ġrot": 3238,
      "Ġacid": 3239,
      "Ġattack": 3240,
      "ĠSept": 3241,
      "Ġpopulations": 3242,
      "Ġinside": 3243,
      "Ġencoura": 3244,
      "ls": 3245,
      "yond": 3246,
      "Ġcard": 3247,
      "Ġinn": 3248,
      "Ġang": 3249,
      "Ġrules": 3250,
      "alled": 3251,
      "Ġsoon": 3252,
      "ologies": 3253,
      "Ġformed": 3254,
      "ields": 3255,
      "abetes": 3256,
      "Ġmom": 3257,
      "icated": 3258,
      "omp": 3259,
      "Ġnut": 3260,
      "ĠSol": 3261,
      "ift": 3262,
      "Ġadop": 3263,
      "Ġinfection": 3264,
      "Ġdifference": 3265,
      "Ġlocation": 3266,
      "Ġoccup": 3267,
      "Ġveh": 3268,
      "ĠHistory": 3269,
      "ĠAugust": 3270,
      "Ġcapacity": 3271,
      "ittee": 3272,
      "26": 3273,
      "ST": 3274,
      "bo": 3275,
      "pid": 3276,
      "ico": 3277,
      "ĠEast": 3278,
      "Ġrecently": 3279,
      "itting": 3280,
      "ĠPresident": 3281,
      "ĠWilliam": 3282,
      "ese": 3283,
      "Ġbal": 3284,
      "ider": 3285,
      "ĠSch": 3286,
      "Ġstru": 3287,
      "ĠBecause": 3288,
      "Ġinvestig": 3289,
      "fficient": 3290,
      "gar": 3291,
      "ps": 3292,
      "ze": 3293,
      "odies": 3294,
      "ĠWater": 3295,
      "Ġsyn": 3296,
      "Ġobt": 3297,
      "Ġ60": 3298,
      "iques": 3299,
      "ĠCouncil": 3300,
      "Ġmid": 3301,
      "ĠMa": 3302,
      "ĠMon": 3303,
      "ĠRed": 3304,
      "Ġsevere": 3305,
      "Ġrock": 3306,
      "Ġanything": 3307,
      "Ġoffer": 3308,
      "Ġdecision": 3309,
      "Ġtransport": 3310,
      "Ġmultiple": 3311,
      "Ġcust": 3312,
      "Ġbase": 3313,
      "Ġlove": 3314,
      "ĠNot": 3315,
      "Ġunc": 3316,
      "Ġdiseases": 3317,
      "Ġcopy": 3318,
      "ference": 3319,
      "Ġbillion": 3320,
      "Ġlic": 3321,
      "Ġgame": 3322,
      "Ġund": 3323,
      "ĠMary": 3324,
      "Ġblock": 3325,
      "Ġphil": 3326,
      "Ġsolar": 3327,
      "Ġlooking": 3328,
      "Ġelements": 3329,
      "udej": 3330,
      "Ġsafe": 3331,
      "iers": 3332,
      "more": 3333,
      "yr": 3334,
      "Ġaware": 3335,
      "Ġcou": 3336,
      "Ġmental": 3337,
      "room": 3338,
      "enth": 3339,
      "ĠSam": 3340,
      "ĠMP": 3341,
      "ĠMount": 3342,
      "ĠMudej": 3343,
      "Ġparty": 3344,
      "aily": 3345,
      "ĠDecember": 3346,
      "Ġanti": 3347,
      "Ġaffected": 3348,
      "Ġinterpret": 3349,
      "80": 3350,
      "Ġwood": 3351,
      "Ġhands": 3352,
      "Ġplaces": 3353,
      "Ġuser": 3354,
      "Ġcommerc": 3355,
      "lick": 3356,
      "Ġhighly": 3357,
      "Ġlocated": 3358,
      "Ġgetting": 3359,
      "Ġdistin": 3360,
      "ĠTechn": 3361,
      "ĠGovern": 3362,
      "na": 3363,
      "iny": 3364,
      "enic": 3365,
      "edom": 3366,
      "Ġinsect": 3367,
      "ĠServ": 3368,
      "Ġalle": 3369,
      "resp": 3370,
      "ĠNet": 3371,
      "Ġcenter": 3372,
      "Ġshowed": 3373,
      "Ġallows": 3374,
      "ĠPeople": 3375,
      "lier": 3376,
      "ceed": 3377,
      "Ġalone": 3378,
      "Ġseason": 3379,
      "Ġshare": 3380,
      "Ġapplied": 3381,
      "ension": 3382,
      "Ġprint": 3383,
      "ĠIslam": 3384,
      "Ġelectr": 3385,
      "ospital": 3386,
      "Ġvideo": 3387,
      "23": 3388,
      "29": 3389,
      "Ġbeg": 3390,
      "ĠSl": 3391,
      "Ġforces": 3392,
      "irm": 3393,
      "ĠMass": 3394,
      "ava": 3395,
      "Ġattention": 3396,
      "range": 3397,
      "iverse": 3398,
      "Ġreligious": 3399,
      "Ġensure": 3400,
      "CT": 3401,
      "eks": 3402,
      "nes": 3403,
      "water": 3404,
      "roy": 3405,
      "entially": 3406,
      "ĠGreat": 3407,
      "Ġleading": 3408,
      "Ġplanet": 3409,
      "Ġspeed": 3410,
      "ography": 3411,
      "Ġteachers": 3412,
      "ET": 3413,
      "Ġten": 3414,
      "Ġdang": 3415,
      "Ġhon": 3416,
      "Ġgot": 3417,
      "olic": 3418,
      "ĠHigh": 3419,
      "odes": 3420,
      "ĠâĢ¢": 3421,
      "Ġfeed": 3422,
      "Ġinstit": 3423,
      "Ġbasis": 3424,
      "ĠCommun": 3425,
      "Ġexposure": 3426,
      "cks": 3427,
      "nown": 3428,
      "Ġwalk": 3429,
      "Ġstorage": 3430,
      "abilities": 3431,
      "ĠJes": 3432,
      "Ġtele": 3433,
      "Ġpatient": 3434,
      "Ġstarted": 3435,
      "ban": 3436,
      "iples": 3437,
      "ufact": 3438,
      "ims": 3439,
      "Ġult": 3440,
      "ĠBa": 3441,
      "illed": 3442,
      "ĠOur": 3443,
      "ĠOver": 3444,
      "Ġquant": 3445,
      "Ġcold": 3446,
      "Ġrequires": 3447,
      "Ġestablish": 3448,
      "Ġcosts": 3449,
      "pose": 3450,
      "Ġdry": 3451,
      "ĠDis": 3452,
      "ocr": 3453,
      "ĠYour": 3454,
      "Ġsurround": 3455,
      "Ġmilk": 3456,
      "Ġdevices": 3457,
      "ridge": 3458,
      "Ġvirt": 3459,
      "Ġchalleng": 3460,
      "60": 3461,
      "wor": 3462,
      "Ġx": 3463,
      "Ġsle": 3464,
      "isl": 3465,
      "oming": 3466,
      "otic": 3467,
      "Ġstress": 3468,
      "ects": 3469,
      "Ġscreen": 3470,
      "Ġrob": 3471,
      "Ġrare": 3472,
      "Ġsupply": 3473,
      "Ġtransl": 3474,
      "Ġpersons": 3475,
      "Ġminutes": 3476,
      "Ġproperties": 3477,
      "Ġdevice": 3478,
      "Ġbenefits": 3479,
      "Ġillust": 3480,
      "Ġcompletely": 3481,
      "Ġappropriate": 3482,
      "ĠAssociation": 3483,
      "lor": 3484,
      "ero": 3485,
      "ona": 3486,
      "Ġsch": 3487,
      "Ġhost": 3488,
      "ĠBra": 3489,
      "ĠUse": 3490,
      "Ġ193": 3491,
      "Ġtrack": 3492,
      "Ġprocessing": 3493,
      "Ġallowed": 3494,
      "Ġargu": 3495,
      "Ġanswer": 3496,
      "This": 3497,
      "24": 3498,
      "IV": 3499,
      "book": 3500,
      "den": 3501,
      "hy": 3502,
      "itle": 3503,
      "Ġnight": 3504,
      "ĠSan": 3505,
      "Ġpoints": 3506,
      "ĠProt": 3507,
      "Ġmonitor": 3508,
      "Ġdepend": 3509,
      "Ġeasily": 3510,
      "ributed": 3511,
      "Ġdisorders": 3512,
      "ony": 3513,
      "atur": 3514,
      "Ġsil": 3515,
      "Ġcode": 3516,
      "ster": 3517,
      "oted": 3518,
      "ests": 3519,
      "ocol": 3520,
      "ĠJames": 3521,
      "Ġimpl": 3522,
      "Ġrapid": 3523,
      "ovember": 3524,
      "Ġremains": 3525,
      "ĠAnother": 3526,
      "Ġmax": 3527,
      "Ġforeign": 3528,
      "Ġcritical": 3529,
      "Ġinfluence": 3530,
      "AL": 3531,
      "iar": 3532,
      "yle": 3533,
      "oration": 3534,
      "Ġmiddle": 3535,
      "Ġdate": 3536,
      "Ġlines": 3537,
      "ĠAre": 3538,
      "ĠLord": 3539,
      "ĠOff": 3540,
      "Ġdispl": 3541,
      "Ġ195": 3542,
      "Ġextra": 3543,
      "Ġreports": 3544,
      "Ġleaders": 3545,
      "Ġeasy": 3546,
      "Ġpositive": 3547,
      "Ġancient": 3548,
      "Ġachieve": 3549,
      "Ġexercise": 3550,
      "lin": 3551,
      "Ġborn": 3552,
      "Ġfoss": 3553,
      "icate": 3554,
      "Ġlength": 3555,
      "ession": 3556,
      "ĠUnder": 3557,
      "Ġperhaps": 3558,
      "Ġgoal": 3559,
      "ought": 3560,
      "Ġuseful": 3561,
      "Ġinstruct": 3562,
      "Ġson": 3563,
      "ĠPat": 3564,
      "ĠBer": 3565,
      "Ġclust": 3566,
      "Ġroom": 3567,
      "inese": 3568,
      "ĠPlan": 3569,
      "aly": 3570,
      "Ġfuel": 3571,
      "Ġmut": 3572,
      "Ġeth": 3573,
      "sec": 3574,
      "Ġgave": 3575,
      "Ġwhom": 3576,
      "Ġnothing": 3577,
      "Ġrates": 3578,
      "ruary": 3579,
      "Ġmanufact": 3580,
      "Ġbecomes": 3581,
      "Ġsaw": 3582,
      "Ġexpected": 3583,
      "Ġequal": 3584,
      "21": 3585,
      "Ġfinal": 3586,
      "Ġmission": 3587,
      "ipment": 3588,
      "ĠProv": 3589,
      "Ġhistorical": 3590,
      "Ġquickly": 3591,
      "ĠDevelopment": 3592,
      "gal": 3593,
      "zing": 3594,
      "Ġtum": 3595,
      "eration": 3596,
      "Ġpow": 3597,
      "Ġfem": 3598,
      "verse": 3599,
      "ulf": 3600,
      "elt": 3601,
      "ellect": 3602,
      "ocks": 3603,
      "ĠInc": 3604,
      "Ġdesalination": 3605,
      "ĠUnion": 3606,
      "ĠAlso": 3607,
      "Ġsmaller": 3608,
      "Ġconflic": 3609,
      "Ġseparate": 3610,
      "Ġbacteria": 3611,
      "ĠSeptember": 3612,
      "Ġfight": 3613,
      "Ġmob": 3614,
      "iments": 3615,
      "Ġstar": 3616,
      "oses": 3617,
      "ems": 3618,
      "Ġrule": 3619,
      "Ġexpand": 3620,
      "Ġhelps": 3621,
      "Ġdiscovered": 3622,
      "Ġorganization": 3623,
      "Ġtarget": 3624,
      "bur": 3625,
      "new": 3626,
      "orge": 3627,
      "Ġreasons": 3628,
      "ĠTex": 3629,
      "ĠBudd": 3630,
      "pping": 3631,
      "Ġvent": 3632,
      "Ġcompany": 3633,
      "phas": 3634,
      "Ġcommunication": 3635,
      "Ġprocesses": 3636,
      "Ġtechniques": 3637,
      "Ġsolution": 3638,
      "Ġtrial": 3639,
      "Ġcurrently": 3640,
      "Ġvirus": 3641,
      "Ġtrying": 3642,
      "bran": 3643,
      "Ġsand": 3644,
      "Ġbad": 3645,
      "Ġhot": 3646,
      "Ġones": 3647,
      "Ġhair": 3648,
      "Ġarri": 3649,
      "ounds": 3650,
      "Ġmotor": 3651,
      "ĠRepublic": 3652,
      "aid": 3653,
      "wide": 3654,
      "Ġmis": 3655,
      "ĠCivil": 3656,
      "pped": 3657,
      "astic": 3658,
      "ĠThus": 3659,
      "ĠChinese": 3660,
      "Ġoffic": 3661,
      "Ġtesting": 3662,
      "Ġtreated": 3663,
      "Ġbenefit": 3664,
      "Ġdemand": 3665,
      "Ġresponsible": 3666,
      "ĠChildren": 3667,
      "Ġsustain": 3668,
      "ef": 3669,
      "time": 3670,
      "Ġdied": 3671,
      "Ġgives": 3672,
      "idel": 3673,
      "Ġaspect": 3674,
      "romos": 3675,
      "ears": 3676,
      "Ġweeks": 3677,
      "Ġinteresting": 3678,
      "Ġsteps": 3679,
      "Ġasked": 3680,
      "ĠFlor": 3681,
      "ĠCounty": 3682,
      "ĠCourt": 3683,
      "70": 3684,
      "king": 3685,
      "Ġdark": 3686,
      "rote": 3687,
      "ĠTod": 3688,
      "ĠAlex": 3689,
      "ĠMod": 3690,
      "Ġchance": 3691,
      "Ġadminist": 3692,
      "Ġpregn": 3693,
      "ologist": 3694,
      "Ġnumerous": 3695,
      "Ġimportance": 3696,
      "Ġserver": 3697,
      "Ġolder": 3698,
      "Ġdoub": 3699,
      "Ġstrength": 3700,
      "Ġcitizens": 3701,
      "Ġwebsite": 3702,
      "bit": 3703,
      "fect": 3704,
      "vant": 3705,
      "inated": 3706,
      "Ġcred": 3707,
      "Ġpen": 3708,
      "Ġfigure": 3709,
      "set": 3710,
      "ĠSur": 3711,
      "ĠCur": 3712,
      "osing": 3713,
      "Ġadj": 3714,
      "Ġsomeone": 3715,
      "Ġmeasures": 3716,
      "Ġmajority": 3717,
      "Ġdetermined": 3718,
      "rolled": 3719,
      "enty": 3720,
      "Ġlif": 3721,
      "verty": 3722,
      "ĠDay": 3723,
      "Ġpoverty": 3724,
      "Ġcool": 3725,
      "ancial": 3726,
      "Ġceleb": 3727,
      "mar": 3728,
      "rations": 3729,
      "Ġi": 3730,
      "Ġtiss": 3731,
      "itis": 3732,
      "Ġdu": 3733,
      "Ġdaily": 3734,
      "Ġeat": 3735,
      "Ġvacc": 3736,
      "Ġimag": 3737,
      "ĠChurch": 3738,
      "Ġexamples": 3739,
      "oyal": 3740,
      "Ġrespond": 3741,
      "Ġlimit": 3742,
      "Ġconstruct": 3743,
      "Ġprior": 3744,
      "Ġtools": 3745,
      "Ġsituation": 3746,
      "Ġcompanies": 3747,
      "Ġcommercial": 3748,
      "HE": 3749,
      "RE": 3750,
      "ĠSw": 3751,
      "ĠSer": 3752,
      "Ġdisp": 3753,
      "ĠProgram": 3754,
      "Ġslight": 3755,
      "Ġeffort": 3756,
      "Ġanaly": 3757,
      "Ġdiabetes": 3758,
      "ĠTrans": 3759,
      "Ġfully": 3760,
      "Ġpul": 3761,
      "ĠTheir": 3762,
      "ama": 3763,
      "antic": 3764,
      "ĠNovember": 3765,
      "Ġearlier": 3766,
      "airs": 3767,
      "Ġthinking": 3768,
      "Ġproviding": 3769,
      "Ġexisting": 3770,
      "Ġfailure": 3771,
      "ĠFebruary": 3772,
      "Ġsold": 3773,
      "idents": 3774,
      "imal": 3775,
      "ĠRet": 3776,
      "Ġshape": 3777,
      "Ġplaced": 3778,
      "irection": 3779,
      "ensity": 3780,
      "Ġ2004": 3781,
      "Ġattract": 3782,
      "Ġfarm": 3783,
      "Ġcultural": 3784,
      "Ġobserved": 3785,
      "Ġstatus": 3786,
      "Ġsummer": 3787,
      "ellectual": 3788,
      "ht": 3789,
      "Ġpet": 3790,
      "Ġtold": 3791,
      "asion": 3792,
      "ĠMc": 3793,
      "ĠGr": 3794,
      "rupt": 3795,
      "izes": 3796,
      "Ġcommand": 3797,
      "rence": 3798,
      "Ġpresident": 3799,
      "inson": 3800,
      "wards": 3801,
      "Ġvalues": 3802,
      "Ġadvant": 3803,
      "Ġconstant": 3804,
      "ĠSystem": 3805,
      "ĠAfrica": 3806,
      "Ġofficials": 3807,
      "oo": 3808,
      "Ġtree": 3809,
      "reet": 3810,
      "ĠAv": 3811,
      "amer": 3812,
      "asses": 3813,
      "Ġpret": 3814,
      "Ġtrad": 3815,
      "ĠProf": 3816,
      "Ġmember": 3817,
      "ĠWeb": 3818,
      "ĠSpec": 3819,
      "Ġstandards": 3820,
      "Ġsubstance": 3821,
      "Ġreveal": 3822,
      "ĠÃ": 3823,
      "Ġpp": 3824,
      "Ġbodies": 3825,
      "icip": 3826,
      "Ġnames": 3827,
      "Ġbeyond": 3828,
      "ĠWestern": 3829,
      "Ġ22": 3830,
      "Ġ28": 3831,
      "Ġrul": 3832,
      "Ġimages": 3833,
      "Ġfaith": 3834,
      "ĠOctober": 3835,
      "do": 3836,
      "Ġphen": 3837,
      "Ġfair": 3838,
      "leton": 3839,
      "ĠPublic": 3840,
      "ĠWork": 3841,
      "ĠEach": 3842,
      "Ġneigh": 3843,
      "ĠLib": 3844,
      "Ġjur": 3845,
      "achuse": 3846,
      "Ġunique": 3847,
      "Ġtruth": 3848,
      "Ġfollowed": 3849,
      "Ġprojects": 3850,
      "Ġlateral": 3851,
      "Ġsuccessful": 3852,
      "Ġreleased": 3853,
      "ĠGeneral": 3854,
      "Ġriver": 3855,
      "Ġelectricity": 3856,
      "Ġmoment": 3857,
      "Ġphilosoph": 3858,
      "ĠJesus": 3859,
      "rs": 3860,
      "ximately": 3861,
      "rehens": 3862,
      "Ġpages": 3863,
      "Ġban": 3864,
      "Ġder": 3865,
      "ĠSub": 3866,
      "amm": 3867,
      "ĠMex": 3868,
      "ĠDec": 3869,
      "ellig": 3870,
      "Ġweather": 3871,
      "Ġqual": 3872,
      "ĠAmericans": 3873,
      "Ġautom": 3874,
      "ĠArch": 3875,
      "Ġdestroy": 3876,
      "Ġconducted": 3877,
      "OS": 3878,
      "off": 3879,
      "tts": 3880,
      "hel": 3881,
      "Ġbord": 3882,
      "Ġstay": 3883,
      "ĠFound": 3884,
      "Ġfeatures": 3885,
      "Ġincreases": 3886,
      "Ġreduced": 3887,
      "Ġeconomy": 3888,
      "Ġdigital": 3889,
      "Ġthousands": 3890,
      "Ġestimated": 3891,
      "Ġbaby": 3892,
      "respond": 3893,
      "achusetts": 3894,
      "uff": 3895,
      "year": 3896,
      "inical": 3897,
      "oring": 3898,
      "Ġupper": 3899,
      "ĠMich": 3900,
      "Ġexact": 3901,
      "Ġcoming": 3902,
      "Ġadapt": 3903,
      "ĠIts": 3904,
      "Ġworked": 3905,
      "Ġemp": 3906,
      "Ġsigns": 3907,
      "Ġradiation": 3908,
      "Ġteacher": 3909,
      "Ġprisoners": 3910,
      "Ġdegree": 3911,
      "Ġalternative": 3912,
      "Ġspirit": 3913,
      "ky": 3914,
      "Ġbran": 3915,
      "ingu": 3916,
      "ĠBay": 3917,
      "Ġagricult": 3918,
      "Ġ2000": 3919,
      "Ġ2003": 3920,
      "ĠWhy": 3921,
      "Ġmembran": 3922,
      "Ġorganizations": 3923,
      "Ġdescription": 3924,
      "Ġhyp": 3925,
      "Ġpurpose": 3926,
      "ĠMedicine": 3927,
      "ĠTexas": 3928,
      "ĠBuddh": 3929,
      "'ve": 3930,
      "yp": 3931,
      "onal": 3932,
      "Ġsect": 3933,
      "Ġhope": 3934,
      "ĠFrance": 3935,
      "fficking": 3936,
      "Ġadm": 3937,
      "Ġjournal": 3938,
      "Ġquar": 3939,
      "Ġoffers": 3940,
      "Ġoffice": 3941,
      "Ġpresence": 3942,
      "iency": 3943,
      "Ġgrant": 3944,
      "Ġeyes": 3945,
      "Ġutil": 3946,
      "cial": 3947,
      "gment": 3948,
      "Ġtou": 3949,
      "rec": 3950,
      "ndom": 3951,
      "Ġmiss": 3952,
      "Ġvit": 3953,
      "Ġrepe": 3954,
      "Ġsurgery": 3955,
      "Ġeverything": 3956,
      "Ġstrateg": 3957,
      "Ġhighest": 3958,
      "Ġadults": 3959,
      "ĠInformation": 3960,
      "Ġstrugg": 3961,
      "works": 3962,
      "35": 3963,
      "Ġwrote": 3964,
      "Ġmal": 3965,
      "Ġpeace": 3966,
      "Ġcollection": 3967,
      "Ġsurvey": 3968,
      "Ġemphas": 3969,
      "Ġcoord": 3970,
      "ĠRev": 3971,
      "Ġinsp": 3972,
      "clus": 3973,
      "Ġpassed": 3974,
      "Ġreceive": 3975,
      "rimination": 3976,
      "Ġfiles": 3977,
      "ĠMassachusetts": 3978,
      "AS": 3979,
      "ying": 3980,
      "Ġfert": 3981,
      "ĠThen": 3982,
      "ĠMD": 3983,
      "rome": 3984,
      "Ġenh": 3985,
      "orms": 3986,
      "Ġdifferences": 3987,
      "Ġflood": 3988,
      "Ġtechnologies": 3989,
      "Ġconstruction": 3990,
      "Ġclearly": 3991,
      "copation": 3992,
      "ĠFranc": 3993,
      "Ġfruit": 3994,
      "back": 3995,
      "men": 3996,
      "met": 3997,
      "oke": 3998,
      "Ġwon": 3999,
      "Ġhous": 4000,
      "Ġ26": 4001,
      "ĠInst": 4002,
      "Ġconservation": 4003,
      "ĠAsia": 4004,
      "Ġfindings": 4005,
      "Ġequipment": 4006,
      "Ġrunning": 4007,
      "Ġdisorder": 4008,
      "Ġsediment": 4009,
      "45": 4010,
      "St": 4011,
      "Ġcities": 4012,
      "Ġbound": 4013,
      "Ġmention": 4014,
      "Ġrise": 4015,
      "ibly": 4016,
      "Ġcompar": 4017,
      "ĠAtl": 4018,
      "Ġbelieved": 4019,
      "Ġtypically": 4020,
      "related": 4021,
      "ĠVietnam": 4022,
      "IS": 4023,
      "ees": 4024,
      "Ġtable": 4025,
      "rew": 4026,
      "Ġmap": 4027,
      "Ġlat": 4028,
      "Ġnative": 4029,
      "osy": 4030,
      "que": 4031,
      "ĠInternet": 4032,
      "ibl": 4033,
      "Ġresistance": 4034,
      "ĠKore": 4035,
      "Ġgoes": 4036,
      "Ġrandom": 4037,
      "Ġremained": 4038,
      "ĠPhys": 4039,
      "Ġelection": 4040,
      "Ġconnection": 4041,
      "Ġload": 4042,
      "Ġopportunity": 4043,
      "CC": 4044,
      "bi": 4045,
      "known": 4046,
      "Ġ=": 4047,
      "head": 4048,
      "itable": 4049,
      "racy": 4050,
      "igr": 4051,
      "ĠPaul": 4052,
      "ifically": 4053,
      "ĠHunting": 4054,
      "ĠRel": 4055,
      "ĠJust": 4056,
      "erved": 4057,
      "Ġmedicine": 4058,
      "Ġtransfer": 4059,
      "Ġcarried": 4060,
      "ĠCollege": 4061,
      "Ġproposed": 4062,
      "Ġstructures": 4063,
      "Ġdrink": 4064,
      "hetic": 4065,
      "ĠEducation": 4066,
      "Ġsleep": 4067,
      "iately": 4068,
      "ken": 4069,
      "Ġtim": 4070,
      "Ġswe": 4071,
      "Ġdirection": 4072,
      "eters": 4073,
      "ĠCop": 4074,
      "ĠFin": 4075,
      "Ġexperien": 4076,
      "ĠScient": 4077,
      "Ġeducational": 4078,
      "ĠEngland": 4079,
      "pective": 4080,
      "Ġrecords": 4081,
      "ĠAfrican": 4082,
      "ĠCharles": 4083,
      "che": 4084,
      "Ġtub": 4085,
      "rees": 4086,
      "Ġocean": 4087,
      "isher": 4088,
      "Ġlinks": 4089,
      "Ġnor": 4090,
      "ĠCap": 4091,
      "resh": 4092,
      "ĠJud": 4093,
      "obe": 4094,
      "ondon": 4095,
      "Ġ2002": 4096,
      "Ġregions": 4097,
      "Ġassign": 4098,
      "ĠProject": 4099,
      "hemat": 4100,
      "Ġapproaches": 4101,
      "Ġbelong": 4102,
      "Ġmarriage": 4103,
      "Ġsuggests": 4104,
      "Ġappears": 4105,
      "Ġkilled": 4106,
      "Ġ...": 4107,
      "Ġtherapy": 4108,
      "Ġwond": 4109,
      "Ġball": 4110,
      "Ġbeds": 4111,
      "ara": 4112,
      "Ġdivid": 4113,
      "Ġconver": 4114,
      "ĠPM": 4115,
      "Ġ27": 4116,
      "ender": 4117,
      "Ġexperiment": 4118,
      "Ġdistance": 4119,
      "Ġdistribution": 4120,
      "ĠSpace": 4121,
      "Ġvision": 4122,
      "Ġchanged": 4123,
      "Ġfinancial": 4124,
      "ĠGeorge": 4125,
      "what": 4126,
      "ĠFlorida": 4127,
      "ania": 4128,
      "oud": 4129,
      "ĠJer": 4130,
      "Ġintellectual": 4131,
      "Ġcontext": 4132,
      "ĠAng": 4133,
      "Ġfunctions": 4134,
      "Ġannual": 4135,
      "32": 4136,
      "Ġsn": 4137,
      "semb": 4138,
      "Ġgir": 4139,
      "ula": 4140,
      "Ġ2013": 4141,
      "Ġcorrespond": 4142,
      "Ġenter": 4143,
      "Ġphysic": 4144,
      "ĠCommission": 4145,
      "Ġtemperatures": 4146,
      "Ġprofessor": 4147,
      "encies": 4148,
      "htm": 4149,
      "ford": 4150,
      "Ġ*": 4151,
      "enge": 4152,
      "aling": 4153,
      "Ġforward": 4154,
      "Ġconv": 4155,
      "terior": 4156,
      "ĠEv": 4157,
      "Ġyouth": 4158,
      "Ġkid": 4159,
      "Ġscale": 4160,
      "Ġdesp": 4161,
      "Ġsolid": 4162,
      "Ġcommonly": 4163,
      "Ġfoods": 4164,
      "porary": 4165,
      "Ġmaintain": 4166,
      "Ġindependent": 4167,
      "Ġschol": 4168,
      "BC": 4169,
      "joy": 4170,
      "pris": 4171,
      "Ġegg": 4172,
      "omy": 4173,
      "Ġstars": 4174,
      "Ġexhib": 4175,
      "ĠLear": 4176,
      "Ġleave": 4177,
      "Ġexposed": 4178,
      "rief": 4179,
      "Ġchemicals": 4180,
      "Ġpicture": 4181,
      "ĠCongress": 4182,
      "89": 4183,
      "bed": 4184,
      "su": 4185,
      "uz": 4186,
      "Ġcast": 4187,
      "ste": 4188,
      "ĠMars": 4189,
      "ria": 4190,
      "unn": 4191,
      "iece": 4192,
      "Ġlegisl": 4193,
      "Ġinterested": 4194,
      "Ġtrees": 4195,
      "Ġemployment": 4196,
      "load": 4197,
      "Ġprinciples": 4198,
      "Ġviolence": 4199,
      "Ġversion": 4200,
      "aur": 4201,
      "aus": 4202,
      "cast": 4203,
      "dad": 4204,
      "iat": 4205,
      "ping": 4206,
      "Ġpric": 4207,
      "Ġfear": 4208,
      "Ġfix": 4209,
      "Ġmo": 4210,
      "ĠDes": 4211,
      "ĠDan": 4212,
      "Ġnoted": 4213,
      "Ġpoly": 4214,
      "Ġopin": 4215,
      "ĠGermany": 4216,
      "Ġtowards": 4217,
      "Ġnuclear": 4218,
      "Ġhabitat": 4219,
      "Ġfibers": 4220,
      "ĠMPa": 4221,
      "yal": 4222,
      "Ġsong": 4223,
      "Ġlived": 4224,
      "Ġbeaut": 4225,
      "Ġconsequ": 4226,
      "ĠHen": 4227,
      "arts": 4228,
      "Ġcontrast": 4229,
      "Ġdecades": 4230,
      "Ġspeech": 4231,
      "Ġidentified": 4232,
      "Ġpurch": 4233,
      "Ġauthorities": 4234,
      "Ġturned": 4235,
      "Ġopportunities": 4236,
      "Ġvillage": 4237,
      "Ġfavor": 4238,
      "aign": 4239,
      "ipl": 4240,
      "iance": 4241,
      "Ġcru": 4242,
      "Ġcrop": 4243,
      "Ġpan": 4244,
      "Ġisn": 4245,
      "ĠDem": 4246,
      "Ġvary": 4247,
      "Ġround": 4248,
      "Ġplans": 4249,
      "Ġincor": 4250,
      "Ġrain": 4251,
      "Ġanyone": 4252,
      "Ġdidn": 4253,
      "Ġcombination": 4254,
      "Ġindustrial": 4255,
      "Ġmoving": 4256,
      "Ġrelatively": 4257,
      "Ġrecommend": 4258,
      "90": 4259,
      "bl": 4260,
      "itness": 4261,
      "ĠAut": 4262,
      "igen": 4263,
      "istant": 4264,
      "ĠDar": 4265,
      "Ġseven": 4266,
      "ĠOs": 4267,
      "apers": 4268,
      "ensus": 4269,
      "Ġroad": 4270,
      "Ġreprodu": 4271,
      "Ġstatement": 4272,
      "Ġpowerful": 4273,
      "Ġrecorded": 4274,
      "Ġaudio": 4275,
      "ĠEnvironmental": 4276,
      "ĠToday": 4277,
      "iable": 4278,
      "itect": 4279,
      "aria": 4280,
      "Ġconstitution": 4281,
      "ĠLabor": 4282,
      "Ġemissions": 4283,
      "icted": 4284,
      "iox": 4285,
      "Ġ70": 4286,
      "Ġapproximately": 4287,
      "Ġbox": 4288,
      "ĠIranian": 4289,
      "28": 4290,
      "SI": 4291,
      "ygen": 4292,
      "Ã¡": 4293,
      "Ġmer": 4294,
      "omb": 4295,
      "Ġnorthern": 4296,
      "raft": 4297,
      "ĠCO": 4298,
      "ĠPal": 4299,
      "abapt": 4300,
      "Ġleaves": 4301,
      "ghdad": 4302,
      "Ġworth": 4303,
      "uality": 4304,
      "Ġformal": 4305,
      "Ġ1990": 4306,
      "Ġoccurred": 4307,
      "ĠCentral": 4308,
      "force": 4309,
      "Ġprofessional": 4310,
      "Ġcreating": 4311,
      "Ġcustom": 4312,
      "Ġdistinct": 4313,
      "ĠGovernment": 4314,
      "Ch": 4315,
      "ded": 4316,
      "equ": 4317,
      "zy": 4318,
      "ÃŃ": 4319,
      "Ġtour": 4320,
      "Ġpip": 4321,
      "ĠAN": 4322,
      "Ġgiving": 4323,
      "etics": 4324,
      "Ġstaff": 4325,
      "ĠMiddle": 4326,
      "ĠWild": 4327,
      "ivation": 4328,
      "ĠGreen": 4329,
      "ĠLake": 4330,
      "Ġspring": 4331,
      "Ġupd": 4332,
      "Ġstudied": 4333,
      "Ġcolon": 4334,
      "Ġinstru": 4335,
      "Ġinstance": 4336,
      "Ġ1999": 4337,
      "Ġpractices": 4338,
      "Ġrelease": 4339,
      "Ġdiscussion": 4340,
      "Ġfriend": 4341,
      "erg": 4342,
      "Ġwest": 4343,
      "Ġpump": 4344,
      "Ġdim": 4345,
      "Ġnations": 4346,
      "umber": 4347,
      "rian": 4348,
      "Ġchronic": 4349,
      "ĠLife": 4350,
      "Ġnote": 4351,
      "Ġschem": 4352,
      "Ġ2001": 4353,
      "Ġcounty": 4354,
      "Ġdiscover": 4355,
      "Ġdefined": 4356,
      "Ġgeneration": 4357,
      "Ġarticles": 4358,
      "Ġlearned": 4359,
      "rieved": 4360,
      "Ġmeeting": 4361,
      "Ġwidely": 4362,
      "aught": 4363,
      "ĠTwo": 4364,
      "ĠTechnology": 4365,
      "ey": 4366,
      "war": 4367,
      "isation": 4368,
      "orph": 4369,
      "Ġbreat": 4370,
      "Ġgal": 4371,
      "ĠMil": 4372,
      "ĠBible": 4373,
      "ĠWol": 4374,
      "ĠFurther": 4375,
      "ĠLat": 4376,
      "ĠLondon": 4377,
      "Ġusers": 4378,
      "Ġpartners": 4379,
      "Ġ186": 4380,
      "Ġcorn": 4381,
      "Ġinvolve": 4382,
      "Ġdescribe": 4383,
      "Ġproteins": 4384,
      "Ġconcerned": 4385,
      "Ġeventually": 4386,
      "Ġclaims": 4387,
      "Ġremoved": 4388,
      "Ġmessage": 4389,
      "ED": 4390,
      "OT": 4391,
      "greg": 4392,
      "erate": 4393,
      "Ġwoman": 4394,
      "Ġfif": 4395,
      "arrow": 4396,
      "uted": 4397,
      "Ġexec": 4398,
      "riz": 4399,
      "ĠRoman": 4400,
      "Ġperman": 4401,
      "Ġunf": 4402,
      "Ġnovel": 4403,
      "Ġexpect": 4404,
      "ception": 4405,
      "Ġbreast": 4406,
      "Ġvolunt": 4407,
      "Ġrequirements": 4408,
      "ĠVirgin": 4409,
      "Ġimmediately": 4410,
      "AC": 4411,
      "band": 4412,
      "iations": 4413,
      "wing": 4414,
      "Ã¶": 4415,
      "Ġwestern": 4416,
      "Ġbond": 4417,
      "Ġgain": 4418,
      "otes": 4419,
      "Ġconvers": 4420,
      "Ġexcess": 4421,
      "ĠNatural": 4422,
      "Ġsymb": 4423,
      "Ġrelation": 4424,
      "Ġpresc": 4425,
      "Ġreference": 4426,
      "Ġexpert": 4427,
      "Ġvisual": 4428,
      "Ġfreedom": 4429,
      "Ġbiological": 4430,
      "ĠStudents": 4431,
      "Ġheavy": 4432,
      "ĠAcadem": 4433,
      "Ġbottom": 4434,
      "Ġfossil": 4435,
      "HA": 4436,
      "house": 4437,
      "ih": 4438,
      "Ġcry": 4439,
      "ĠMal": 4440,
      "Ġrang": 4441,
      "Ġspect": 4442,
      "ously": 4443,
      "osex": 4444,
      "Ġactual": 4445,
      "Ġoperations": 4446,
      "Ġcounter": 4447,
      "senic": 4448,
      "tical": 4449,
      "Ġcateg": 4450,
      "orial": 4451,
      "icit": 4452,
      "iling": 4453,
      "ĠTur": 4454,
      "Ġlatter": 4455,
      "Ġdiss": 4456,
      "ribute": 4457,
      "Ġacadem": 4458,
      "Ġfeature": 4459,
      "Ġmodels": 4460,
      "Ġelim": 4461,
      "Ġcharacteristics": 4462,
      "Ġancest": 4463,
      "Ġintroduced": 4464,
      "Ġnucle": 4465,
      "37": 4466,
      "ias": 4467,
      "Ġbattle": 4468,
      "Ġfields": 4469,
      "idity": 4470,
      "ĠChe": 4471,
      "Ġstage": 4472,
      "Ġstories": 4473,
      "ĠMo": 4474,
      "ĠMr": 4475,
      "ĠMuseum": 4476,
      "ĠBoth": 4477,
      "ĠHit": 4478,
      "elled": 4479,
      "earing": 4480,
      "Ġclos": 4481,
      "Ġarm": 4482,
      "Ġmeant": 4483,
      "ĠEnergy": 4484,
      "Ġbackground": 4485,
      "ĠOnce": 4486,
      "ĠMedical": 4487,
      "ĠAbout": 4488,
      "Ġnegot": 4489,
      "Ġfrequently": 4490,
      "Ġpreviously": 4491,
      "Ġextremely": 4492,
      "ĠBaghdad": 4493,
      "Ġmaximum": 4494,
      "Ġdisplay": 4495,
      "Ġphenomen": 4496,
      "ĠFoundation": 4497,
      "cious": 4498,
      "Ġ:": 4499,
      "Ġsort": 4500,
      "Ġpal": 4501,
      "ĠSign": 4502,
      "Ġforced": 4503,
      "âĢľ": 4504,
      "ĠMat": 4505,
      "Ġprohib": 4506,
      "ĠElect": 4507,
      "ĠFederal": 4508,
      "Ġvia": 4509,
      "unction": 4510,
      "Ġrich": 4511,
      "Ġweak": 4512,
      "Ġarmy": 4513,
      "Ġresulting": 4514,
      "rolog": 4515,
      "ĠDef": 4516,
      "ĠIsland": 4517,
      "Ġviews": 4518,
      "Ġfacilities": 4519,
      "Ġiniti": 4520,
      "aughter": 4521,
      "Ġfriends": 4522,
      "Ġwinter": 4523,
      "Ġconflict": 4524,
      "38": 4525,
      "EL": 4526,
      "ha": 4527,
      "iant": 4528,
      "lar": 4529,
      "win": 4530,
      "Ġice": 4531,
      "Ġsen": 4532,
      "Ġfig": 4533,
      "ĠSom": 4534,
      "ĠEmp": 4535,
      "ĠGre": 4536,
      "Ġshut": 4537,
      "ĠUp": 4538,
      "Ġcontribut": 4539,
      "Ġperfect": 4540,
      "Ġapply": 4541,
      "ĠVol": 4542,
      "Ġsynd": 4543,
      "Ġmostly": 4544,
      "Ġgrand": 4545,
      "Ġcompleted": 4546,
      "Ġplanning": 4547,
      "Ġconnect": 4548,
      "Ġoptions": 4549,
      "Ġjobs": 4550,
      "ĠObject": 4551,
      "Ġatmosphere": 4552,
      "cus": 4553,
      "isp": 4554,
      "Ġpit": 4555,
      "Ġinh": 4556,
      "Ġinher": 4557,
      "Ġmos": 4558,
      "ett": 4559,
      "ĠEvery": 4560,
      "Ġ29": 4561,
      "Ġconsists": 4562,
      "ĠYet": 4563,
      "Ġoverall": 4564,
      "Ġsubm": 4565,
      "Ġexperts": 4566,
      "Ġorganisms": 4567,
      "Ġoperating": 4568,
      "ĠMuslims": 4569,
      "Ġmachine": 4570,
      "ĠService": 4571,
      "hors": 4572,
      "mun": 4573,
      "Ġcere": 4574,
      "iding": 4575,
      "ĠHIV": 4576,
      "Ġenjoy": 4577,
      "ormally": 4578,
      "ords": 4579,
      "Ġbecoming": 4580,
      "Ġhelped": 4581,
      "Ġpatent": 4582,
      "Ġshowing": 4583,
      "Ġperformed": 4584,
      "Ġconnected": 4585,
      "Ġletters": 4586,
      "Ġmoved": 4587,
      "Ġwildlife": 4588,
      "Ġpatterns": 4589,
      "Ġbalance": 4590,
      "Ġchallenges": 4591,
      "Ġcards": 4592,
      "Ġrat": 4593,
      "ĠJon": 4594,
      "Ġcontract": 4595,
      "Ġcomprehens": 4596,
      "Ġclim": 4597,
      "Ġdiscrimination": 4598,
      "Ġeveryone": 4599,
      "clop": 4600,
      "Ġpresented": 4601,
      "Ġpromote": 4602,
      "Ġrevolution": 4603,
      "ographic": 4604,
      "Ġcircum": 4605,
      "going": 4606,
      "ĠCompany": 4607,
      "ĠAustralia": 4608,
      "Ġlandsc": 4609,
      "ĠRetrieved": 4610,
      "fort": 4611,
      "Â·": 4612,
      "Ġband": 4613,
      "Ġdat": 4614,
      "Ġreb": 4615,
      "Ġreality": 4616,
      "Ġliqu": 4617,
      "olved": 4618,
      "rag": 4619,
      "erson": 4620,
      "ĠWind": 4621,
      "ĠDirect": 4622,
      "Ġhem": 4623,
      "ache": 4624,
      "Ġwaste": 4625,
      "ĠLou": 4626,
      "âĢĿ.": 4627,
      "Ġroyal": 4628,
      "Ġactions": 4629,
      "Ġremember": 4630,
      "Ġkept": 4631,
      "Ġexplain": 4632,
      "Ġexpression": 4633,
      "ĠCanadian": 4634,
      "Ġsquare": 4635,
      "Ġdetails": 4636,
      "ault": 4637,
      "lers": 4638,
      "mal": 4639,
      "ped": 4640,
      "west": 4641,
      "Ġign": 4642,
      "Ġsav": 4643,
      "Ġpiece": 4644,
      "Ġhuge": 4645,
      "omic": 4646,
      "olid": 4647,
      "iring": 4648,
      "ams": 4649,
      "iform": 4650,
      "Ġalt": 4651,
      "ĠBel": 4652,
      "umin": 4653,
      "Ġsufficient": 4654,
      "ĠFore": 4655,
      "Ġchief": 4656,
      "ĠLa": 4657,
      "rick": 4658,
      "Ġminor": 4659,
      "Ġfinding": 4660,
      "Ġserved": 4661,
      "Ġimmune": 4662,
      "Ġcampaign": 4663,
      "Ġefficient": 4664,
      "Ġoxygen": 4665,
      "Ġslightly": 4666,
      "inity": 4667,
      "Ġcand": 4668,
      "Ġbone": 4669,
      "Ġinput": 4670,
      "Ġthick": 4671,
      "omas": 4672,
      "Ġisland": 4673,
      "ĠSuch": 4674,
      "iful": 4675,
      "ĠBu": 4676,
      "acher": 4677,
      "unk": 4678,
      "Ġintended": 4679,
      "Ġ300": 4680,
      "ossible": 4681,
      "Ġemail": 4682,
      "Ġdecided": 4683,
      "Ġdetect": 4684,
      "Ġcontinues": 4685,
      "Ġcontinuous": 4686,
      "Ġfundam": 4687,
      "Ġdomestic": 4688,
      "Ġtissue": 4689,
      "ĠHitler": 4690,
      "Ġmere": 4691,
      "Ġreached": 4692,
      "ĠBro": 4693,
      "ĠBet": 4694,
      "ocal": 4695,
      "ocation": 4696,
      "key": 4697,
      "Ġspin": 4698,
      "ogen": 4699,
      "Ġcontem": 4700,
      "Ġmanner": 4701,
      "ishing": 4702,
      "ologists": 4703,
      "Ġtraffic": 4704,
      "issure": 4705,
      "Ġextent": 4706,
      "Ġgets": 4707,
      "Ġresulted": 4708,
      "Ġcreation": 4709,
      "Ġserve": 4710,
      "Ġ1995": 4711,
      "rison": 4712,
      "Ġmathemat": 4713,
      "Ġbrother": 4714,
      "ifying": 4715,
      "Ġletter": 4716,
      "Ġconcepts": 4717,
      "Ġreferred": 4718,
      "DA": 4719,
      "If": 4720,
      "eer": 4721,
      "hma": 4722,
      "ios": 4723,
      "pat": 4724,
      "pus": 4725,
      "rig": 4726,
      "ss": 4727,
      "Ġwww": 4728,
      "ana": 4729,
      "ctic": 4730,
      "Ġrenew": 4731,
      "Ġnit": 4732,
      "ĠMill": 4733,
      "illing": 4734,
      "Ġheard": 4735,
      "Ġchurch": 4736,
      "eces": 4737,
      "ager": 4738,
      "Ġresource": 4739,
      "ressed": 4740,
      "Ġ31": 4741,
      "Ġgoals": 4742,
      "Ġsave": 4743,
      "Ġelement": 4744,
      "espite": 4745,
      "Ġterrit": 4746,
      "Ġimproved": 4747,
      "idden": 4748,
      "Ġdiscussed": 4749,
      "ortunately": 4750,
      "Ġsequence": 4751,
      "ĠGreek": 4752,
      "Ġlicens": 4753,
      "ĠOffice": 4754,
      "ĠMexico": 4755,
      "78": 4756,
      "craft": 4757,
      "ev": 4758,
      "iot": 4759,
      "rum": 4760,
      "Ġille": 4761,
      "eria": 4762,
      "Ġpun": 4763,
      "Ġplease": 4764,
      "Ġinternal": 4765,
      "Ġisol": 4766,
      "ado": 4767,
      "ĠDon": 4768,
      "ĠRich": 4769,
      "ĠNote": 4770,
      "apes": 4771,
      "Ġarrest": 4772,
      "Ġjoint": 4773,
      "Ġunderst": 4774,
      "Ġemot": 4775,
      "Ġdirector": 4776,
      "risis": 4777,
      "Ġchanging": 4778,
      "Ġpractical": 4779,
      "Ġcausing": 4780,
      "Ġcombined": 4781,
      "ĠOrgan": 4782,
      "Ġsentence": 4783,
      "Ġimpacts": 4784,
      "Ġexpressed": 4785,
      "Ġdocuments": 4786,
      "Ġregarding": 4787,
      "Ġprocedures": 4788,
      "Ġdivided": 4789,
      "'ll": 4790,
      "36": 4791,
      "bal": 4792,
      "Ġesc": 4793,
      "Ġtro": 4794,
      "Ġaim": 4795,
      "ĠTest": 4796,
      "ram": 4797,
      "Ġstim": 4798,
      "ĠMem": 4799,
      "Ġconvent": 4800,
      "istan": 4801,
      "ĠDist": 4802,
      "ĠExt": 4803,
      "ĠThose": 4804,
      "Ġ35": 4805,
      "ĠAnabapt": 4806,
      "Ġfamous": 4807,
      "ĠSea": 4808,
      "Ġorganic": 4809,
      "Ġtrend": 4810,
      "Ġsignificantly": 4811,
      "Ġharm": 4812,
      "Ġparticipants": 4813,
      "Ġreturned": 4814,
      "Ġchoice": 4815,
      "Ġbegins": 4816,
      "Ġadvantage": 4817,
      "ĠProfess": 4818,
      "CR": 4819,
      "RO": 4820,
      "can": 4821,
      "cles": 4822,
      "ville": 4823,
      "Ġpray": 4824,
      "Ġeast": 4825,
      "ĠCath": 4826,
      "heric": 4827,
      "ĠHung": 4828,
      "Ġexcell": 4829,
      "ĠFigure": 4830,
      "ĠRem": 4831,
      "Ġvote": 4832,
      "Ġspent": 4833,
      "aste": 4834,
      "aped": 4835,
      "ĠKh": 4836,
      "Ġprefer": 4837,
      "ĠNews": 4838,
      "ĠConstitution": 4839,
      "Ġmeasured": 4840,
      "Ġeastern": 4841,
      "Ġbelief": 4842,
      "Ġradio": 4843,
      "ĠIII": 4844,
      "Ġwrong": 4845,
      "ĠSecond": 4846,
      "Ġmorning": 4847,
      "Ġdespite": 4848,
      "85": 4849,
      "nic": 4850,
      "rition": 4851,
      "enced": 4852,
      "Ġfast": 4853,
      "Ġfine": 4854,
      "ilit": 4855,
      "Ġstation": 4856,
      "Ġstem": 4857,
      "Ġstated": 4858,
      "Ġanterior": 4859,
      "ĠBrown": 4860,
      "umn": 4861,
      "ĠDespite": 4862,
      "ĠRad": 4863,
      "ĠRober": 4864,
      "Ġunivers": 4865,
      "Ġnewsp": 4866,
      "Ġobvious": 4867,
      "Ġ45": 4868,
      "cyclop": 4869,
      "Ġcenturies": 4870,
      "Ġauthors": 4871,
      "Ġminimum": 4872,
      "clusion": 4873,
      "ĠColor": 4874,
      "Ġauthority": 4875,
      "Ġlanguages": 4876,
      "Ġrelevant": 4877,
      "Ġpolicies": 4878,
      "Ġdegrees": 4879,
      "Ġdynam": 4880,
      "Ġprepared": 4881,
      "Ġinnov": 4882,
      "IG": 4883,
      "ding": 4884,
      "ship": 4885,
      "itz": 4886,
      "Ġpaid": 4887,
      "alle": 4888,
      "Ġfresh": 4889,
      "Ġdro": 4890,
      "char": 4891,
      "ulating": 4892,
      "eles": 4893,
      "aks": 4894,
      "reatment": 4895,
      "Ġscen": 4896,
      "Ġtechnique": 4897,
      "Ġfinally": 4898,
      "Ġillness": 4899,
      "Ġdefinition": 4900,
      "Ġlaunch": 4901,
      "Ġelectrical": 4902,
      "ĠEmpire": 4903,
      "down": 4904,
      "rat": 4905,
      "Ġnarr": 4906,
      "ĠDiv": 4907,
      "Ġweap": 4908,
      "ĠKen": 4909,
      "Ġinform": 4910,
      "Ġcollege": 4911,
      "Ġphr": 4912,
      "Ġphone": 4913,
      "Ġsecret": 4914,
      "standing": 4915,
      "Ġantib": 4916,
      "Ġeasier": 4917,
      "ĠCommittee": 4918,
      "spec": 4919,
      "Ġcouncil": 4920,
      "Ġsounds": 4921,
      "Ġpollution": 4922,
      "ĠUsing": 4923,
      "Ġcomponents": 4924,
      "ĠMaryland": 4925,
      "ĠNetwork": 4926,
      "Ġmembrane": 4927,
      "Ġexperienced": 4928,
      "An": 4929,
      "LE": 4930,
      "cont": 4931,
      "faces": 4932,
      "heim": 4933,
      "iled": 4934,
      "ĠCamb": 4935,
      "ĠImp": 4936,
      "Ġstore": 4937,
      "ulin": 4938,
      "ifies": 4939,
      "osen": 4940,
      "ĠStep": 4941,
      "Ġspecifically": 4942,
      "Ġsupplies": 4943,
      "Ġformation": 4944,
      "Ġdistrict": 4945,
      "Ġwarm": 4946,
      "Ġreduction": 4947,
      "Ġtried": 4948,
      "Ġmovements": 4949,
      "Ġnetworks": 4950,
      "ĠSyn": 4951,
      "Ġhappens": 4952,
      "Ġprimarily": 4953,
      "Ġfram": 4954,
      "Ġannoun": 4955,
      "Ġfrequency": 4956,
      "Ġinitial": 4957,
      "Ġportion": 4958,
      "Ġlinked": 4959,
      "Ġwalls": 4960,
      "ĠCastleton": 4961,
      "osystem": 4962,
      "ĠHenry": 4963,
      "Ġincorpor": 4964,
      "co": 4965,
      "ux": 4966,
      "alse": 4967,
      "ĠSen": 4968,
      "ĠSou": 4969,
      "ĠSun": 4970,
      "rad": 4971,
      "ĠMag": 4972,
      "Ġvast": 4973,
      "rust": 4974,
      "akers": 4975,
      "ĠStand": 4976,
      "Ġsynt": 4977,
      "Ġjustice": 4978,
      "Ġlargely": 4979,
      "Ġlimits": 4980,
      "Ġamounts": 4981,
      "Ġcritic": 4982,
      "Ġharvest": 4983,
      "ĠFrancisc": 4984,
      "ĠKorea": 4985,
      "ĠLouis": 4986,
      "AP": 4987,
      "DP": 4988,
      "hu": 4989,
      "tic": 4990,
      "uit": 4991,
      "Ġ>": 4992,
      "Ġsick": 4993,
      "Ġburn": 4994,
      "astern": 4995,
      "Ġhop": 4996,
      "oma": 4997,
      "Ġlung": 4998,
      "ĠCz": 4999,
      "Ġspot": 5000,
      "Ġgovernments": 5001,
      "Ġprotocol": 5002,
      "Ġ1998": 5003,
      "Ġbuildings": 5004,
      "ognitive": 5005,
      "Ġrelationships": 5006,
      "Ġconsumption": 5007,
      "idelines": 5008,
      "Ġdoubt": 5009,
      "Ġfertil": 5010,
      "Ġkidney": 5011,
      "ĠVirginia": 5012,
      "75": 5013,
      "DS": 5014,
      "mark": 5015,
      "rigation": 5016,
      "tra": 5017,
      "vity": 5018,
      "Ġtask": 5019,
      "Ġsac": 5020,
      "Ġpi": 5021,
      "Ġfaster": 5022,
      "Ġtomat": 5023,
      "Ġdrop": 5024,
      "Ġhit": 5025,
      "ĠSection": 5026,
      "ĠFood": 5027,
      "ague": 5028,
      "Ġmeat": 5029,
      "Ġinfected": 5030,
      "berg": 5031,
      "Ġteach": 5032,
      "Ġcolors": 5033,
      "Ġcoal": 5034,
      "Ġremove": 5035,
      "Ġassum": 5036,
      "Ġdiscovery": 5037,
      "Ġeffectively": 5038,
      "Ġorganized": 5039,
      "Ġboard": 5040,
      "Ġ90": 5041,
      "Ġplayed": 5042,
      "Ġsuggested": 5043,
      "Ġconcern": 5044,
      "Ġsubstant": 5045,
      "Ġchallenge": 5046,
      "Ġarchitect": 5047,
      "Ġhouses": 5048,
      "BS": 5049,
      "bach": 5050,
      "jo": 5051,
      "Ġwet": 5052,
      "ĠAS": 5053,
      "ulum": 5054,
      "erences": 5055,
      "ĠWell": 5056,
      "Ġcomment": 5057,
      "Ġhear": 5058,
      "Ġheight": 5059,
      "ĠLet": 5060,
      "Ġsports": 5061,
      "Ġkm": 5062,
      "Ġparties": 5063,
      "Ġteeth": 5064,
      "Ġacts": 5065,
      "Ġinvent": 5066,
      "Ġparticles": 5067,
      "Ġsetting": 5068,
      "Ġleader": 5069,
      "Ġreducing": 5070,
      "Ġcapable": 5071,
      "Ġguide": 5072,
      "Ġinterests": 5073,
      "Ġsaying": 5074,
      "Ġabsor": 5075,
      "Ġemergency": 5076,
      "Ġreaction": 5077,
      ".'": 5078,
      "46": 5079,
      "IP": 5080,
      "ball": 5081,
      "inter": 5082,
      "Ġsend": 5083,
      "Ġmic": 5084,
      "Ġmist": 5085,
      "urd": 5086,
      "ĠDisc": 5087,
      "Ġhearing": 5088,
      "Ġves": 5089,
      "Ġunit": 5090,
      "Ġunless": 5091,
      "Ġteaching": 5092,
      "Ġsupposed": 5093,
      "Ġgravel": 5094,
      "Ġ80": 5095,
      "Ġadvice": 5096,
      "Ġtypical": 5097,
      "Ġconcerns": 5098,
      "Ġsuperior": 5099,
      "Ġchoose": 5100,
      "ĠParkinson": 5101,
      "Ġmolecules": 5102,
      "Ġmillions": 5103,
      "Ġcomponent": 5104,
      "Ġmonitoring": 5105,
      "Ġsector": 5106,
      "33": 5107,
      "CE": 5108,
      "eor": 5109,
      "oe": 5110,
      "Ġsalt": 5111,
      "Ġsections": 5112,
      "Ġcore": 5113,
      "Ġcovered": 5114,
      "Ġcamer": 5115,
      "Ġwife": 5116,
      "itud": 5117,
      "icon": 5118,
      "Ġhus": 5119,
      "ĠTor": 5120,
      "ĠSum": 5121,
      "usal": 5122,
      "ĠWat": 5123,
      "Ġsugar": 5124,
      "Ġcontaining": 5125,
      "Ġotherwise": 5126,
      "ĠSte": 5127,
      "Ġrace": 5128,
      "Ġaccur": 5129,
      "ovak": 5130,
      "ĠWhite": 5131,
      "Ġmode": 5132,
      "Ġfacts": 5133,
      "Ġtested": 5134,
      "Ġcharge": 5135,
      "Ġsupported": 5136,
      "Ġhousehold": 5137,
      "Ġbehavi": 5138,
      "Ġmeasurements": 5139,
      "Ġsouthern": 5140,
      "ĠRussia": 5141,
      "Ġadopted": 5142,
      "Ġvehicles": 5143,
      "ocratic": 5144,
      "ĠAlexander": 5145,
      "Ġgalax": 5146,
      "Ġpermanent": 5147,
      "Ġsymbol": 5148,
      "ĠCzech": 5149,
      "IA": 5150,
      "no": 5151,
      "Ġcrim": 5152,
      "ingly": 5153,
      "Ġhospital": 5154,
      "Ġgyr": 5155,
      "ĠRights": 5156,
      "Ġhaz": 5157,
      "Ġleaving": 5158,
      "Ġju": 5159,
      "Ġcooper": 5160,
      "Ġhelping": 5161,
      "Ġinstall": 5162,
      "Ġseek": 5163,
      "ĠArmy": 5164,
      "Ġruns": 5165,
      "Ġhappen": 5166,
      "Ġlayers": 5167,
      "Ġdoctors": 5168,
      "ĠBritain": 5169,
      "Ġreligion": 5170,
      "Ġsamples": 5171,
      "Ġsusp": 5172,
      "Ġvictims": 5173,
      "Ġinsects": 5174,
      "Ġfemale": 5175,
      "romosome": 5176,
      "48": 5177,
      "ares": 5178,
      "cher": 5179,
      "long": 5180,
      "well": 5181,
      "wood": 5182,
      "Ġtitle": 5183,
      "ini": 5184,
      "Ġther": 5185,
      "ishes": 5186,
      "Ġbrief": 5187,
      "Ġles": 5188,
      "Ġnav": 5189,
      "ĠSal": 5190,
      "ĠMart": 5191,
      "ĠPost": 5192,
      "Ġnotes": 5193,
      "Ġship": 5194,
      "ĠâĢ¦": 5195,
      "Ġintellig": 5196,
      "agers": 5197,
      "Ġclinical": 5198,
      "Ġknew": 5199,
      "Ġcolle": 5200,
      "Ġtrig": 5201,
      "Ġ500": 5202,
      "Ġcalls": 5203,
      "ĠReview": 5204,
      "iveness": 5205,
      "Ġmarine": 5206,
      "Ġbird": 5207,
      "aimed": 5208,
      "Ġrecommended": 5209,
      "Ġliterature": 5210,
      "Ġhoriz": 5211,
      "ĠGlobal": 5212,
      "Ġrapidly": 5213,
      "Ġcredit": 5214,
      "Ġprices": 5215,
      "Ġmoist": 5216,
      "ĠRobert": 5217,
      "CL": 5218,
      "rich": 5219,
      "iner": 5220,
      "atform": 5221,
      "Ġmouth": 5222,
      "rot": 5223,
      "Ġnarrow": 5224,
      "ceived": 5225,
      "ĠIra": 5226,
      "oting": 5227,
      "Ġstyle": 5228,
      "ĠFree": 5229,
      "oston": 5230,
      "Ġimpossible": 5231,
      "Ġoffered": 5232,
      "Ġfloor": 5233,
      "exam": 5234,
      "Ġallowing": 5235,
      "Ġtrials": 5236,
      "Ġoperation": 5237,
      "Ġopened": 5238,
      "Ġprofession": 5239,
      "Ġfamiliar": 5240,
      "Ġconclud": 5241,
      "Ġcollabor": 5242,
      "Ġhundreds": 5243,
      "Ġselected": 5244,
      "Ġappeared": 5245,
      "Ġcluster": 5246,
      "Ġventric": 5247,
      "Ġwonder": 5248,
      "99": 5249,
      "xts": 5250,
      "Ġath": 5251,
      "itter": 5252,
      "Ġbed": 5253,
      "Ġfell": 5254,
      "ĠAp": 5255,
      "ĠClick": 5256,
      "ĠHome": 5257,
      "osph": 5258,
      "ĠJose": 5259,
      "ĠThrough": 5260,
      "Ġincome": 5261,
      "Ġuniverse": 5262,
      "âĢĿ,": 5263,
      "Ġsomewhat": 5264,
      "Ġblue": 5265,
      "Ġsurpris": 5266,
      "ictor": 5267,
      "Ġbuy": 5268,
      "ructure": 5269,
      "ĠCancer": 5270,
      "Ġstarting": 5271,
      "Ġanswers": 5272,
      "Ġliquid": 5273,
      ",'": 5274,
      "yt": 5275,
      "Ġcrisis": 5276,
      "oral": 5277,
      "Ġpure": 5278,
      "Ġrecept": 5279,
      "Ġlas": 5280,
      "uration": 5281,
      "ada": 5282,
      "ĠPower": 5283,
      "abil": 5284,
      "resents": 5285,
      "acing": 5286,
      "ĠRo": 5287,
      "Ġvo": 5288,
      "Ġspl": 5289,
      "ogle": 5290,
      "oster": 5291,
      "Ġraised": 5292,
      "Ġprice": 5293,
      "Ġattacks": 5294,
      "ĠSciences": 5295,
      "Ġclassroom": 5296,
      "ĠColumb": 5297,
      "Ġproperly": 5298,
      "Ġbreeding": 5299,
      "Ġmuscle": 5300,
      "Ġgrass": 5301,
      "Ġvolume": 5302,
      "ĠBlack": 5303,
      "Ġkinds": 5304,
      "Ġtells": 5305,
      "Ġsurvival": 5306,
      "Ġwatershed": 5307,
      "Ġaspects": 5308,
      "BN": 5309,
      "HO": 5310,
      "va": 5311,
      "Ġtrou": 5312,
      "Ġtiny": 5313,
      "erals": 5314,
      "Ġple": 5315,
      "Ġpestic": 5316,
      "Ġmel": 5317,
      "ĠTHE": 5318,
      "igration": 5319,
      "Ġyellow": 5320,
      "ĠBook": 5321,
      "ĠBoston": 5322,
      "ĠHouse": 5323,
      "Ġshared": 5324,
      "ĠOcean": 5325,
      "Ġunits": 5326,
      "ĠHebre": 5327,
      "Ġsubsequ": 5328,
      "ĠTherefore": 5329,
      "Ġexplore": 5330,
      "Ġmainly": 5331,
      "Ġgreatly": 5332,
      "ĠQue": 5333,
      "Ġlisten": 5334,
      "Ġurban": 5335,
      "Ġprecise": 5336,
      "Ġvegetables": 5337,
      "ĠMudejar": 5338,
      "Ġinstitutions": 5339,
      "burg": 5340,
      "Ġadjust": 5341,
      "ĠHebrew": 5342,
      "98": 5343,
      "chers": 5344,
      "dd": 5345,
      "ean": 5346,
      "ype": 5347,
      "anz": 5348,
      "ancing": 5349,
      "Ġdoll": 5350,
      "level": 5351,
      "Ġeating": 5352,
      "ĠAM": 5353,
      "othes": 5354,
      "ĠMu": 5355,
      "Ġconstit": 5356,
      "Ġexternal": 5357,
      "ortion": 5358,
      "Ġapparent": 5359,
      "bert": 5360,
      "Ġconsult": 5361,
      "ĠAny": 5362,
      "Ġcenters": 5363,
      "Ġextensive": 5364,
      "Ġwarming": 5365,
      "Ġcareer": 5366,
      "Ġadvoc": 5367,
      "Ġbrown": 5368,
      "Ġtrust": 5369,
      "Ġ1980": 5370,
      "Ġfailed": 5371,
      "Ġresponsibility": 5372,
      "Ġrecognized": 5373,
      "Ġthousand": 5374,
      "Ġcycle": 5375,
      "Ġassessment": 5376,
      "Ġobtained": 5377,
      "Ġexactly": 5378,
      "Ġfundamental": 5379,
      "Ġpieces": 5380,
      "GO": 5381,
      "ooth": 5382,
      "inos": 5383,
      "inations": 5384,
      "Ġhur": 5385,
      "Ġhun": 5386,
      "Ġnine": 5387,
      "ĠAriz": 5388,
      "change": 5389,
      "ĠBas": 5390,
      "isted": 5391,
      "ĠHel": 5392,
      "ĠNav": 5393,
      "ĠGal": 5394,
      "ĠOld": 5395,
      "active": 5396,
      "Ġcontrolled": 5397,
      "ĠThomas": 5398,
      "Ġarsenic": 5399,
      "Ġroot": 5400,
      "Ġgraph": 5401,
      "Ġminim": 5402,
      "Ġestimate": 5403,
      "Ġtreatments": 5404,
      "Ġpossibility": 5405,
      "Ġissued": 5406,
      "Ġidentity": 5407,
      "Ġpotentially": 5408,
      "Ġtopics": 5409,
      "Ġmotion": 5410,
      "Ġfunding": 5411,
      "ĠCarol": 5412,
      "Ġprincip": 5413,
      "Ġincreasingly": 5414,
      "ĠPrince": 5415,
      "Ġstrategies": 5416,
      "ĠIraq": 5417,
      "55": 5418,
      "DT": 5419,
      "II": 5420,
      "bing": 5421,
      "ii": 5422,
      "point": 5423,
      "yd": 5424,
      "yn": 5425,
      "inent": 5426,
      "Ġpou": 5427,
      "Ġdaughter": 5428,
      "Ġreject": 5429,
      "Ġfort": 5430,
      "Ġonto": 5431,
      "Ġstored": 5432,
      "ĠLast": 5433,
      "Ġnotice": 5434,
      "ework": 5435,
      "Ġcloth": 5436,
      "Ġagency": 5437,
      "Ġ36": 5438,
      "Ġmedium": 5439,
      "Ġinstruction": 5440,
      "Ġdefects": 5441,
      "Ġcorrel": 5442,
      "ĠResources": 5443,
      "Ġwanted": 5444,
      "Ġexistence": 5445,
      "Ġsensitive": 5446,
      "Ġreplace": 5447,
      "Ġsample": 5448,
      "Ġlaboratory": 5449,
      "Ġmolecular": 5450,
      "Ġstraight": 5451,
      "Ġtransmission": 5452,
      "Ġhonor": 5453,
      "Ġinstructions": 5454,
      "Ġtumor": 5455,
      "html": 5456,
      "iatric": 5457,
      "Ġacademic": 5458,
      "Ġsyndrome": 5459,
      "ĠWindows": 5460,
      "ĠCatholic": 5461,
      "ĠSouthern": 5462,
      "CD": 5463,
      "aj": 5464,
      "avery": 5465,
      "cers": 5466,
      "gments": 5467,
      "press": 5468,
      "vis": 5469,
      "Ġtape": 5470,
      "Ġcert": 5471,
      "Ġfro": 5472,
      "anish": 5473,
      "Ġnormally": 5474,
      "Ġgar": 5475,
      "olve": 5476,
      "ĠMicro": 5477,
      "ĠMET": 5478,
      "ĠWhere": 5479,
      "ĠNative": 5480,
      "Ġappoint": 5481,
      "ĠKar": 5482,
      "Ġcommit": 5483,
      "Ġaccom": 5484,
      "Ġ400": 5485,
      "Ġindex": 5486,
      "Ġdecisions": 5487,
      "ĠCommon": 5488,
      "Ġpossess": 5489,
      "ĠEarly": 5490,
      "cope": 5491,
      "ĠStudies": 5492,
      "Ġhorse": 5493,
      "ĠRussian": 5494,
      "Ġpregnancy": 5495,
      "Ġlatest": 5496,
      "ĠLatin": 5497,
      "cyclopedia": 5498,
      "pret": 5499,
      "rang": 5500,
      "zil": 5501,
      "inf": 5502,
      "inant": 5503,
      "Ġsin": 5504,
      "Ġsnow": 5505,
      "Ġwitness": 5506,
      "anks": 5507,
      "Ġmamm": 5508,
      "Ġded": 5509,
      "Ġgold": 5510,
      "ĠSk": 5511,
      "ĠBen": 5512,
      "ods": 5513,
      "ĠData": 5514,
      "ĠNature": 5515,
      "orted": 5516,
      "ureau": 5517,
      "Ġrural": 5518,
      "ĠJava": 5519,
      "ribed": 5520,
      "ooking": 5521,
      "Ġregist": 5522,
      "Ġmedic": 5523,
      "ĠRef": 5524,
      "Ġelectron": 5525,
      "Ġexplan": 5526,
      "commun": 5527,
      "ĠOnly": 5528,
      "Ġdirected": 5529,
      "Ġrisks": 5530,
      "Ġinvolves": 5531,
      "Ġparalle": 5532,
      "Ġlooks": 5533,
      "Ġsubjects": 5534,
      "Ġflowers": 5535,
      "ĠMinistry": 5536,
      "Ġinteractions": 5537,
      "ĠHistor": 5538,
      "Ġhydro": 5539,
      "Ġsurrounding": 5540,
      "ĠAcademy": 5541,
      "Ġillegal": 5542,
      "Ġunderstood": 5543,
      "Ġvessel": 5544,
      "34": 5545,
      "coh": 5546,
      "field": 5547,
      "names": 5548,
      "rant": 5549,
      "ya": 5550,
      "inet": 5551,
      "reed": 5552,
      "alog": 5553,
      "Ġbill": 5554,
      "Ġfly": 5555,
      "Ġmale": 5556,
      "Ġhomes": 5557,
      "Ġlies": 5558,
      "Ġgrown": 5559,
      "ĠSand": 5560,
      "raw": 5561,
      "rair": 5562,
      "ota": 5563,
      "ĠPri": 5564,
      "ĠHall": 5565,
      "ĠNE": 5566,
      "Ġdisapp": 5567,
      "Ġoutput": 5568,
      "Ġtwenty": 5569,
      "Ġrepresents": 5570,
      "Ġhappened": 5571,
      "Ġirrigation": 5572,
      "Ġhydrogen": 5573,
      "What": 5574,
      "Ġvehicle": 5575,
      "ĠMudejars": 5576,
      "Ġdangerous": 5577,
      "Ġborder": 5578,
      "Ġgirls": 5579,
      "ioxide": 5580,
      "Ġcandid": 5581,
      "As": 5582,
      "CO": 5583,
      "ael": 5584,
      "des": 5585,
      "tle": 5586,
      "zen": 5587,
      "rete": 5588,
      "Ġsides": 5589,
      "Ġinhib": 5590,
      "iced": 5591,
      "Ġtow": 5592,
      "stream": 5593,
      "ĠIll": 5594,
      "Ġstorm": 5595,
      "irty": 5596,
      "abase": 5597,
      "ĠWomen": 5598,
      "ested": 5599,
      "estalt": 5600,
      "ĠLike": 5601,
      "Ġshar": 5602,
      "ĠOut": 5603,
      "ĠJac": 5604,
      "iah": 5605,
      "place": 5606,
      "ago": 5607,
      "Ġtrafficking": 5608,
      "idential": 5609,
      "ipping": 5610,
      "ĠGoogle": 5611,
      "Ġmechanism": 5612,
      "Ġagreement": 5613,
      "Ġphilosophy": 5614,
      "Ġquarter": 5615,
      "iblical": 5616,
      "Ġdrinking": 5617,
      "ĠProfessor": 5618,
      "Ġexcellent": 5619,
      "76": 5620,
      "BI": 5621,
      "ki": 5622,
      "mond": 5623,
      "rating": 5624,
      "tion": 5625,
      "Ã§": 5626,
      "Ġsul": 5627,
      "itch": 5628,
      "alam": 5629,
      "Ġfasc": 5630,
      "Ġthin": 5631,
      "ĠTer": 5632,
      "ston": 5633,
      "celer": 5634,
      "ĠPeter": 5635,
      "Ġitems": 5636,
      "oples": 5637,
      "ĠRoyal": 5638,
      "ĠNor": 5639,
      "alls": 5640,
      "Ġaccomp": 5641,
      "Ġexpans": 5642,
      "Ġassistance": 5643,
      "198": 5644,
      "Ġexplained": 5645,
      "Ġprinciple": 5646,
      "Ġjudge": 5647,
      "ĠManagement": 5648,
      "Ġmountain": 5649,
      "Ġinjury": 5650,
      "Ġslowly": 5651,
      "Ġsatell": 5652,
      "Ġscholars": 5653,
      "igenous": 5654,
      "Ġmosqu": 5655,
      "ĠArizona": 5656,
      "Ġaccompl": 5657,
      "gl": 5658,
      "ij": 5659,
      "ras": 5660,
      "Ġ#": 5661,
      "itors": 5662,
      "Ġfisher": 5663,
      "lements": 5664,
      "ĠPac": 5665,
      "ĠPlease": 5666,
      "ĠFre": 5667,
      "Ġshot": 5668,
      "Ġplatform": 5669,
      "agues": 5670,
      "ibilities": 5671,
      "ĠStar": 5672,
      "Ġtexts": 5673,
      "ĠItal": 5674,
      "Ġsurfaces": 5675,
      "Ġrefers": 5676,
      "Ġowners": 5677,
      "Ġdepending": 5678,
      "Ġadvance": 5679,
      "Ġposterior": 5680,
      "Ġfishing": 5681,
      "ĠÂ©": 5682,
      "poses": 5683,
      "Ġaccepted": 5684,
      "Ġdemonstrated": 5685,
      "riptions": 5686,
      "Ġdecrease": 5687,
      "board": 5688,
      "ĠIslamic": 5689,
      "Ġopinion": 5690,
      "ĠWildlife": 5691,
      "Ġcircumst": 5692,
      "ĠFrancisco": 5693,
      "Ġgyrus": 5694,
      "AM": 5695,
      "fe": 5696,
      "upp": 5697,
      "onst": 5698,
      "itage": 5699,
      "Ġped": 5700,
      "Ġfirm": 5701,
      "Ġfalse": 5702,
      "Ġdrought": 5703,
      "Ġhour": 5704,
      "Ġnone": 5705,
      "Ġanth": 5706,
      "atever": 5707,
      "ĠEnd": 5708,
      "ĠFam": 5709,
      "ĠRab": 5710,
      "anta": 5711,
      "Ġrough": 5712,
      "ĠOx": 5713,
      "Ġdisk": 5714,
      "Ġjury": 5715,
      "Ġinfections": 5716,
      "ĠAnn": 5717,
      "vironments": 5718,
      "Ġcontinu": 5719,
      "Ġtempor": 5720,
      "Ġequival": 5721,
      "Ġslaves": 5722,
      "ĠBefore": 5723,
      "ĠGuide": 5724,
      "ĠFrank": 5725,
      "Ġkingdom": 5726,
      "Ġdouble": 5727,
      "Ġdogs": 5728,
      "Ġtoxicity": 5729,
      "Ġpretty": 5730,
      "Ġstruggle": 5731,
      "ĠInstead": 5732,
      "31": 5733,
      "49": 5734,
      "mail": 5735,
      "ture": 5736,
      "vision": 5737,
      "Ġ+": 5738,
      "Ġ~": 5739,
      "Ġdial": 5740,
      "ament": 5741,
      "eline": 5742,
      "adel": 5743,
      "Ġ(\"": 5744,
      "osite": 5745,
      "ĠGet": 5746,
      "ĠGulf": 5747,
      "ĠLab": 5748,
      "ĠOp": 5749,
      "Ġwealth": 5750,
      "ruption": 5751,
      "Ġproducing": 5752,
      "Ġregional": 5753,
      "athy": 5754,
      "Ġreform": 5755,
      "Ġperspective": 5756,
      "Ġlocations": 5757,
      "Ġexperiments": 5758,
      "Ġdepth": 5759,
      "ĠConf": 5760,
      "Ġrestrict": 5761,
      "ĠExpl": 5762,
      "Ġaffects": 5763,
      "Ġlisted": 5764,
      "Ġerr": 5765,
      "Ġinteraction": 5766,
      "ĠÂ·": 5767,
      "Ġroute": 5768,
      "Ġmanufacture": 5769,
      "Ġneighbor": 5770,
      "Ġrepeated": 5771,
      "Ġfigures": 5772,
      "Ġlandscape": 5773,
      "namese": 5774,
      "96": 5775,
      "bial": 5776,
      "col": 5777,
      "mas": 5778,
      "Ġax": 5779,
      "Ġaqu": 5780,
      "inating": 5781,
      "Ġfo": 5782,
      "icy": 5783,
      "state": 5784,
      "step": 5785,
      "Ġgun": 5786,
      "imens": 5787,
      "etry": 5788,
      "Ġstock": 5789,
      "ĠMS": 5790,
      "ĠDise": 5791,
      "ĠEconom": 5792,
      "Ġvul": 5793,
      "ĠGene": 5794,
      "ĠLand": 5795,
      "Ġabuse": 5796,
      "Ġmanif": 5797,
      "Ġinferior": 5798,
      "Ġroof": 5799,
      "Ġamino": 5800,
      "oved": 5801,
      "Ġremaining": 5802,
      "ventions": 5803,
      "ĠArctic": 5804,
      "Ġtechnical": 5805,
      "Ġ1997": 5806,
      "ĠClass": 5807,
      "Ġperiods": 5808,
      "Ġasthma": 5809,
      "Ġclosely": 5810,
      "Ġindicate": 5811,
      "ING": 5812,
      "aturally": 5813,
      "Ġsustainable": 5814,
      "Ġagricultural": 5815,
      "Ġmentioned": 5816,
      "ĠWolbach": 5817,
      "58": 5818,
      "DE": 5819,
      "UR": 5820,
      "hand": 5821,
      "rative": 5822,
      "ses": 5823,
      "such": 5824,
      "ita": 5825,
      "Ġpick": 5826,
      "Ġmour": 5827,
      "Ġmice": 5828,
      "Ġtoler": 5829,
      "Ġholes": 5830,
      "ĠAz": 5831,
      "ĠMark": 5832,
      "ĠPort": 5833,
      "Ġwasn": 5834,
      "Ġseed": 5835,
      "ĠGood": 5836,
      "Ġchlor": 5837,
      "ateral": 5838,
      "Ġclosed": 5839,
      "Ġmanage": 5840,
      "ĠStreet": 5841,
      "ĠChapter": 5842,
      "Ġexpensive": 5843,
      "Ġremote": 5844,
      "Ġautism": 5845,
      "Ġfollows": 5846,
      "comes": 5847,
      "Ġadvanced": 5848,
      "Ġpaint": 5849,
      "Ġcomputers": 5850,
      "ipped": 5851,
      "ĠControl": 5852,
      "Ġstrike": 5853,
      "Ġinjuries": 5854,
      "Ġcouple": 5855,
      "heimer": 5856,
      "'m": 5857,
      "41": 5858,
      "ION": 5859,
      "UN": 5860,
      "gor": 5861,
      "Ġtail": 5862,
      "indu": 5863,
      "Ġfelt": 5864,
      "Ġmail": 5865,
      "Ġdie": 5866,
      "Ġdioxide": 5867,
      "urance": 5868,
      "Ġstands": 5869,
      "ĠMiss": 5870,
      "Ġorb": 5871,
      "Ġapprec": 5872,
      "Ġunion": 5873,
      "ifications": 5874,
      "Ġadding": 5875,
      "ĠWho": 5876,
      "Ġextract": 5877,
      "Ġextended": 5878,
      "Ġdepends": 5879,
      "Ġlooked": 5880,
      "Ġbroken": 5881,
      "Ġbiology": 5882,
      "Ġ130": 5883,
      "Ġnecessarily": 5884,
      "ĠMoreover": 5885,
      "Ġrecognize": 5886,
      "Ġtowns": 5887,
      "Ġfluor": 5888,
      "Ġinterpre": 5889,
      "Ġlibrary": 5890,
      "Ġengineering": 5891,
      "ĠVietnamese": 5892,
      "Ġtaxes": 5893,
      "Ġencourage": 5894,
      "cohol": 5895,
      "ĠWolbachia": 5896,
      "OL": 5897,
      "flow": 5898,
      "ny": 5899,
      "po": 5900,
      "Ġbank": 5901,
      "Ġfol": 5902,
      "Ġgall": 5903,
      "ĠSever": 5904,
      "ĠHospital": 5905,
      "that": 5906,
      "iest": 5907,
      "andon": 5908,
      "Ġenvironments": 5909,
      "ĠUt": 5910,
      "Ġplastic": 5911,
      "Ġperception": 5912,
      "Ġunlike": 5913,
      "Ġcommitted": 5914,
      "ĠVer": 5915,
      "Ġblog": 5916,
      "Ġacids": 5917,
      "Ġattached": 5918,
      "Ġflag": 5919,
      "Ġdefe": 5920,
      "Ġdepression": 5921,
      "Ġcrew": 5922,
      "Ġshel": 5923,
      "ĠIndians": 5924,
      "Ġelected": 5925,
      "Ġgoods": 5926,
      "Ġmatters": 5927,
      "ĠAdminist": 5928,
      "Ġemployed": 5929,
      "which": 5930,
      "Ġastron": 5931,
      "Ġhistoric": 5932,
      "Ġseparated": 5933,
      "Ġfluid": 5934,
      "IDS": 5935,
      "Ġsurvive": 5936,
      "Ġachieved": 5937,
      "Ġconcentrations": 5938,
      "ĠISBN": 5939,
      "Ġrarely": 5940,
      "ĠBrazil": 5941,
      "Ġofficers": 5942,
      "Ġdestroyed": 5943,
      "Ġbeautiful": 5944,
      "Ġtroops": 5945,
      "Ġhusband": 5946,
      "rairie": 5947,
      "05": 5948,
      "47": 5949,
      "care": 5950,
      "ivery": 5951,
      "mic": 5952,
      "matic": 5953,
      "pre": 5954,
      "Ġiron": 5955,
      "Ġ__": 5956,
      "Ġoption": 5957,
      "Ġcognitive": 5958,
      "ano": 5959,
      "Ġinact": 5960,
      "inger": 5961,
      "Ġnaturally": 5962,
      "Ġgames": 5963,
      "ĠST": 5964,
      "ĠCa": 5965,
      "thrit": 5966,
      "employ": 5967,
      "ĠEqu": 5968,
      "Ġrub": 5969,
      "asts": 5970,
      "Ġimper": 5971,
      "Ġcontamin": 5972,
      "Ġunus": 5973,
      "Ġcommittee": 5974,
      "ĠVictor": 5975,
      "ieties": 5976,
      "Ġacceler": 5977,
      "Ġinvention": 5978,
      "Ġremark": 5979,
      "Ġwhereas": 5980,
      "Ġexamine": 5981,
      "Ġoccasion": 5982,
      "Ġready": 5983,
      "ĠSpanish": 5984,
      "Ġexplo": 5985,
      "Ġpercentage": 5986,
      "Ġsky": 5987,
      "Ġnearby": 5988,
      "Ġappearance": 5989,
      "Ġcollected": 5990,
      "Ġcrime": 5991,
      "Ġvillages": 5992,
      "Ġoriginally": 5993,
      "Ġmagnetic": 5994,
      "Ġpictures": 5995,
      "Ġefficiency": 5996,
      "Ġdiagnosis": 5997,
      "Ġregularly": 5998,
      "Ġnutri": 5999,
      "Ġawareness": 6000,
      "Ġargument": 6001,
      "Ġfarmers": 6002,
      "sembly": 6003,
      "eal": 6004,
      "Ġaf": 6005,
      "Ġcos": 6006,
      "Ġbright": 6007,
      "Ġbatter": 6008,
      "Ġfill": 6009,
      "Ġfold": 6010,
      "Ġfissure": 6011,
      "anes": 6012,
      "ctive": 6013,
      "Ġgone": 6014,
      "ĠIN": 6015,
      "ĠId": 6016,
      "ĠPen": 6017,
      "ĠPub": 6018,
      "ĠHand": 6019,
      "eren": 6020,
      "erent": 6021,
      "Ġsuc": 6022,
      "ĠNations": 6023,
      "Ġselection": 6024,
      "Ġchapter": 6025,
      "Ġchosen": 6026,
      "ĠLong": 6027,
      "ogl": 6028,
      "aker": 6029,
      "Ġunknown": 6030,
      "Ġblocks": 6031,
      "Ġphase": 6032,
      "Ġindeed": 6033,
      "Ġdecade": 6034,
      "Ġsubs": 6035,
      "Ġpolar": 6036,
      "Ġgenerate": 6037,
      "Ġsimpl": 6038,
      "Ġservers": 6039,
      "Ġexplains": 6040,
      "Ġclasses": 6041,
      "ĠAddition": 6042,
      "...]": 6043,
      "Ġelev": 6044,
      "Ġsecondary": 6045,
      "Ġmarked": 6046,
      "Ġfacilit": 6047,
      "Ġdescribes": 6048,
      "ĠConsuls": 6049,
      "Ġwindow": 6050,
      "lamm": 6051,
      "ĠAmong": 6052,
      "Ġintegrated": 6053,
      "Ġdebate": 6054,
      "Ġprocedure": 6055,
      "Ġwalking": 6056,
      "ĠCurrent": 6057,
      "Ġconstructed": 6058,
      "Ġtouch": 6059,
      "adelph": 6060,
      "Al": 6061,
      "LL": 6062,
      "called": 6063,
      "kes": 6064,
      "name": 6065,
      "Ġcoc": 6066,
      "ĠTimes": 6067,
      "Ġlose": 6068,
      "sex": 6069,
      "olf": 6070,
      "olute": 6071,
      "othe": 6072,
      "vert": 6073,
      "ĠBul": 6074,
      "ĠHim": 6075,
      "ĠNGO": 6076,
      "ĠOil": 6077,
      "Ġends": 6078,
      "Ġkil": 6079,
      "Ġrecip": 6080,
      "Ġpeoples": 6081,
      "Ġtwice": 6082,
      "luding": 6083,
      "oviet": 6084,
      "Ġdecline": 6085,
      "ĠAlz": 6086,
      "Ġsignal": 6087,
      "Ġhumidity": 6088,
      "Ġgenerated": 6089,
      "Ġdistingu": 6090,
      "Ġcourts": 6091,
      "theless": 6092,
      "Ġequally": 6093,
      "Ġinvolving": 6094,
      "Ġoperate": 6095,
      "Ġcertainly": 6096,
      "Ġtopic": 6097,
      "Ġkeeping": 6098,
      "Ġdriving": 6099,
      "Ġassociation": 6100,
      "Ġfocused": 6101,
      "Ġconsiderable": 6102,
      "Ġholding": 6103,
      "ĠInterpret": 6104,
      "Ġpredict": 6105,
      "ĠValley": 6106,
      "ĠValenc": 6107,
      "Ġecosystem": 6108,
      "Ġcompetition": 6109,
      "Ġmobile": 6110,
      "Ġspiritual": 6111,
      "Ġenhance": 6112,
      "ĠAtlantic": 6113,
      "Ġnucleus": 6114,
      "ĠJonah": 6115,
      "Ġhemisp": 6116,
      "ĠDivision": 6117,
      "01": 6118,
      "know": 6119,
      "och": 6120,
      "yright": 6121,
      "Ġtheories": 6122,
      "ato": 6123,
      "esis": 6124,
      "Ġbow": 6125,
      "Ġbud": 6126,
      "Ġfle": 6127,
      "ĠAst": 6128,
      "Ġpros": 6129,
      "adic": 6130,
      "ĠEPA": 6131,
      "ĠGroup": 6132,
      "Ġrid": 6133,
      "Ġenem": 6134,
      "Ġabandon": 6135,
      "Ġplate": 6136,
      "ansas": 6137,
      "inding": 6138,
      "Ġoutl": 6139,
      "Ġoutcome": 6140,
      "Ġscene": 6141,
      "Ġhelpful": 6142,
      "Ġartist": 6143,
      "Ġgreatest": 6144,
      "ĠConn": 6145,
      "Ġseemed": 6146,
      "Ġrepresentation": 6147,
      "Ġerror": 6148,
      "Ġaster": 6149,
      "Ġdetailed": 6150,
      "ĠPhiladelph": 6151,
      "Ġdiagnosed": 6152,
      "ĠSlovak": 6153,
      "ĠLibrary": 6154,
      "ĠScientists": 6155,
      "ĠLearning": 6156,
      "Ġcriminal": 6157,
      "Ġhazard": 6158,
      "Ġmedicines": 6159,
      "Ġparallel": 6160,
      "ĠAlzheimer": 6161,
      "500": 6162,
      "CP": 6163,
      "RI": 6164,
      "].": 6165,
      "Ġsought": 6166,
      "alysis": 6167,
      "Ġfit": 6168,
      "ĠTim": 6169,
      "ĠTanz": 6170,
      "ĠAT": 6171,
      "ĠIr": 6172,
      "ĠMer": 6173,
      "Ġneu": 6174,
      "Ġneither": 6175,
      "Ġdisabilities": 6176,
      "Ġcomposed": 6177,
      "Ġclick": 6178,
      "Ġprepar": 6179,
      "oking": 6180,
      "arsh": 6181,
      "Ġsolutions": 6182,
      "Ġrising": 6183,
      "Ġfewer": 6184,
      "Ġpurposes": 6185,
      "Ġclaimed": 6186,
      "Ġsumm": 6187,
      "Ġsituations": 6188,
      "Ġentirely": 6189,
      "Ġregarded": 6190,
      "Ġmassive": 6191,
      "Ġconcentration": 6192,
      "Ġindependence": 6193,
      "Ġcarrying": 6194,
      "Ġethnic": 6195,
      "Ġinstrument": 6196,
      "ĠFurthermore": 6197,
      "ĠJoseph": 6198,
      "ĠPacific": 6199,
      "06": 6200,
      "US": 6201,
      "pet": 6202,
      "za": 6203,
      "onic": 6204,
      "Ġwire": 6205,
      "isters": 6206,
      "Ġbones": 6207,
      "Ġmath": 6208,
      "Ġnest": 6209,
      "etime": 6210,
      "ĠCross": 6211,
      "Ġconqu": 6212,
      "Ġanx": 6213,
      "abled": 6214,
      "ĠDi": 6215,
      "ĠFollow": 6216,
      "ĠNorthern": 6217,
      "ĠChic": 6218,
      "riculum": 6219,
      "phal": 6220,
      "teen": 6221,
      "Ġacres": 6222,
      "Ġdefend": 6223,
      "Ġworldwide": 6224,
      "Ġsecure": 6225,
      "Ġphysics": 6226,
      "Ġengaged": 6227,
      "Ġdelivery": 6228,
      "Ġcriteria": 6229,
      "Ġwatch": 6230,
      "Ġkilling": 6231,
      "Ġfrequent": 6232,
      "ltry": 6233,
      "Ġvaccine": 6234,
      "Ġrevealed": 6235,
      "Ġsweet": 6236,
      "Ã¶n": 6237,
      "ĠDistrict": 6238,
      "ĠSyncopation": 6239,
      "rint": 6240,
      "Ġtherap": 6241,
      "Ġcrow": 6242,
      "organ": 6243,
      "itivity": 6244,
      "Ġmort": 6245,
      "Ġmuseum": 6246,
      "ĠTime": 6247,
      "Ġlik": 6248,
      "olt": 6249,
      "imental": 6250,
      "ĠBi": 6251,
      "Ġexists": 6252,
      "ĠDu": 6253,
      "unch": 6254,
      "Ġspend": 6255,
      "Ġresolution": 6256,
      "Ġresidents": 6257,
      "Ġscan": 6258,
      "Ġrecovery": 6259,
      "Ġaggress": 6260,
      "Ġcommunicate": 6261,
      "Ġartists": 6262,
      "Ġspeaking": 6263,
      "ĠChristians": 6264,
      "ĠReport": 6265,
      "Ġsubstances": 6266,
      "Ġphoto": 6267,
      "Ġreplaced": 6268,
      "Ġvitamin": 6269,
      "Ġcomprehensive": 6270,
      "Ġframework": 6271,
      "Ġathlet": 6272,
      "Ġmosquit": 6273,
      "65": 6274,
      "DF": 6275,
      "SS": 6276,
      "body": 6277,
      "free": 6278,
      "ga": 6279,
      "athe": 6280,
      "Ġsell": 6281,
      "Ġwid": 6282,
      "Ġpull": 6283,
      "ani": 6284,
      "Ġinject": 6285,
      "Ġdiversity": 6286,
      "asks": 6287,
      "Ġbeat": 6288,
      "ĠAP": 6289,
      "Ġstages": 6290,
      "ĠMake": 6291,
      "Ġasc": 6292,
      "Ġ(âĢľ": 6293,
      "ĠBab": 6294,
      "ĠHam": 6295,
      "ĠFIG": 6296,
      "Ġenforce": 6297,
      "ĠUK": 6298,
      "acters": 6299,
      "Ġusage": 6300,
      "eck": 6301,
      "Ġadequ": 6302,
      "Ġmanaged": 6303,
      "Ġarms": 6304,
      "ĠStat": 6305,
      "ĠVis": 6306,
      "Ġagencies": 6307,
      "Ġsurve": 6308,
      "Ġregulations": 6309,
      "Ġmedial": 6310,
      "Ġtransform": 6311,
      "Ġcommunications": 6312,
      "Ġminute": 6313,
      "Ġ1994": 6314,
      "Ġleads": 6315,
      "Ġredund": 6316,
      "Ġlesson": 6317,
      "Ġopposite": 6318,
      "Ġfacility": 6319,
      "Ġrepresented": 6320,
      "Ġdeliver": 6321,
      "Ġzone": 6322,
      "Ġzero": 6323,
      "Ġinvestigation": 6324,
      "Ġstrongly": 6325,
      "ĠPerhaps": 6326,
      "Ġmountains": 6327,
      "ictionary": 6328,
      "Ġapart": 6329,
      "Ġprepare": 6330,
      "ĠParis": 6331,
      "Ġpowers": 6332,
      "Ġmalaria": 6333,
      "Ġlesb": 6334,
      "Ġexpansion": 6335,
      "Ġequivalent": 6336,
      "ĠPhiladelphia": 6337,
      "?\"": 6338,
      "See": 6339,
      "eper": 6340,
      "gov": 6341,
      "with": 6342,
      "Ġsession": 6343,
      "Ġcart": 6344,
      "Ġcited": 6345,
      "Ġwants": 6346,
      "ora": 6347,
      "aled": 6348,
      "Ġdut": 6349,
      "roph": 6350,
      "Ġgay": 6351,
      "âĢĳ": 6352,
      "amen": 6353,
      "uses": 6354,
      "ĠDesc": 6355,
      "Ġchick": 6356,
      "unicip": 6357,
      "peror": 6358,
      "ĠThough": 6359,
      "Ġrecl": 6360,
      "Ġthereby": 6361,
      "ricts": 6362,
      "Ġroll": 6363,
      "Ġcolumn": 6364,
      "issivity": 6365,
      "Ġinterior": 6366,
      "Ġmedications": 6367,
      "Ġfoundation": 6368,
      "Ġdefine": 6369,
      "ĠWeek": 6370,
      "Ġprotected": 6371,
      "Ġ1996": 6372,
      "Ġcharacters": 6373,
      "2012": 6374,
      "Ġguidelines": 6375,
      "ĠEngine": 6376,
      "anguage": 6377,
      "Ġsuccessfully": 6378,
      "Ġstructural": 6379,
      "Ġresponses": 6380,
      "ĠGeorg": 6381,
      "Ġfeeling": 6382,
      "Ġthreatened": 6383,
      "Ġlaunched": 6384,
      "Ġatmospheric": 6385,
      "Ġderived": 6386,
      "ĠSometimes": 6387,
      "Ġdatabase": 6388,
      "Ġmerely": 6389,
      "Ġcontemporary": 6390,
      "Ġweapons": 6391,
      "ĠJacob": 6392,
      "Ġcircumstances": 6393,
      "77": 6394,
      "95": 6395,
      "CI": 6396,
      "lv": 6397,
      "wa": 6398,
      "herent": 6399,
      "atically": 6400,
      "ario": 6401,
      "Ġmac": 6402,
      "Ġbears": 6403,
      "ĠAgency": 6404,
      "utive": 6405,
      "amorph": 6406,
      "ĠMont": 6407,
      "ĠBre": 6408,
      "ĠBureau": 6409,
      "ĠHol": 6410,
      "emeter": 6411,
      "ptic": 6412,
      "earchers": 6413,
      "Ġintake": 6414,
      "Ġcompound": 6415,
      "ĠChr": 6416,
      "Ġsched": 6417,
      "Ġprem": 6418,
      "Ġyourself": 6419,
      "teb": 6420,
      "Ġoverl": 6421,
      "tenance": 6422,
      "Ġ75": 6423,
      "Ġpossibly": 6424,
      "Ġelections": 6425,
      "Ġelectronic": 6426,
      "ĠAtt": 6427,
      "Ġmeters": 6428,
      "Ġcarefully": 6429,
      "Ġ[...]": 6430,
      "Ġreceiving": 6431,
      "Ġobservations": 6432,
      "Ġ1970": 6433,
      "Ġintroduction": 6434,
      "Ġfruits": 6435,
      "Ġvisitors": 6436,
      "ĠJapanese": 6437,
      "Ġhomosex": 6438,
      "Ġvirtual": 6439,
      "Ġtranslated": 6440,
      "Ġgranted": 6441,
      "Ġcereb": 6442,
      "ĠColumbia": 6443,
      "ĠSeveral": 6444,
      "*]": 6445,
      ".|": 6446,
      "dden": 6447,
      "een": 6448,
      "part": 6449,
      "produ": 6450,
      "zed": 6451,
      "Ã³": 6452,
      "Ġtal": 6453,
      "Ġwave": 6454,
      "Ġpark": 6455,
      "Ġmit": 6456,
      "Ġrein": 6457,
      "Ġbear": 6458,
      "ĠSoviet": 6459,
      "rac": 6460,
      "Ġstable": 6461,
      "Ġstret": 6462,
      "Ġconclusion": 6463,
      "ĠPan": 6464,
      "Ġalcohol": 6465,
      "ĠBack": 6466,
      "ĠHG": 6467,
      "ategy": 6468,
      "ĠWhe": 6469,
      "Ġcomments": 6470,
      "emia": 6471,
      "ĠLow": 6472,
      "ĠOT": 6473,
      "uster": 6474,
      "Ġuns": 6475,
      "Ġpreced": 6476,
      "Ġagreed": 6477,
      "Ġ37": 6478,
      "ĠYes": 6479,
      "Ġsigned": 6480,
      "Ġdistributed": 6481,
      "ĠArts": 6482,
      "Ġcorpus": 6483,
      "venile": 6484,
      "hips": 6485,
      "Ġmetab": 6486,
      "Ġstrategy": 6487,
      "Ġengage": 6488,
      "Ġfilm": 6489,
      "Ġoptical": 6490,
      "Ġcounsel": 6491,
      "Ġindicated": 6492,
      "Ġtalking": 6493,
      "Ġjoined": 6494,
      "Ġdeclared": 6495,
      "ĠSmith": 6496,
      "Ġsoldiers": 6497,
      "ĠMichael": 6498,
      "stein": 6499,
      "Ġcloser": 6500,
      "ĠColorado": 6501,
      "Ġphrase": 6502,
      "usalem": 6503,
      "Ġmoisture": 6504,
      "example": 6505,
      "Ġprincipal": 6506,
      "Ġpoultry": 6507,
      "Ġvulner": 6508,
      "04": 6509,
      "EP": 6510,
      "[*]": 6511,
      "gent": 6512,
      "iw": 6513,
      "Ġwel": 6514,
      "Ġpig": 6515,
      "leg": 6516,
      "ĠTri": 6517,
      "Ġlists": 6518,
      "Ġnob": 6519,
      "idem": 6520,
      "ĠSoper": 6521,
      "ĠCreat": 6522,
      "uled": 6523,
      "Ġprove": 6524,
      "ĠPur": 6525,
      "ĠBir": 6526,
      "ĠHo": 6527,
      "ershed": 6528,
      "Ġchann": 6529,
      "ĠLiter": 6530,
      "ĠOF": 6531,
      "Ġcontribute": 6532,
      "Ġ32": 6533,
      "Ġinterview": 6534,
      "Ġcentre": 6535,
      "Ġflat": 6536,
      "Ġfounded": 6537,
      "Ġgravity": 6538,
      "Ġgenerations": 6539,
      "Ġvisible": 6540,
      "Ġmetal": 6541,
      "iodiversity": 6542,
      "Ġrepresentative": 6543,
      "Ġera": 6544,
      "Ġyounger": 6545,
      "Ġimmun": 6546,
      "Ġphotos": 6547,
      "Ġcrimes": 6548,
      "Ġimplemented": 6549,
      "Ġsoul": 6550,
      "rastructure": 6551,
      "Ġemphasis": 6552,
      "ĠDesign": 6553,
      "Ġnitrogen": 6554,
      "Ġconventional": 6555,
      "itudes": 6556,
      "ĠItalian": 6557,
      "Ġasteroid": 6558,
      "44": 6559,
      "88": 6560,
      "AD": 6561,
      "born": 6562,
      "eenth": 6563,
      "http": 6564,
      "Ġbiblical": 6565,
      "Ġreven": 6566,
      "Ġlie": 6567,
      "ĠIT": 6568,
      "oto": 6569,
      "Ġstrict": 6570,
      "irt": 6571,
      "ĠMult": 6572,
      "ĠBur": 6573,
      "ĠBru": 6574,
      "ĠDet": 6575,
      "ĠDel": 6576,
      "ĠDiff": 6577,
      "ĠDoes": 6578,
      "Ġheating": 6579,
      "ĠNol": 6580,
      "ĠNaz": 6581,
      "ocracy": 6582,
      "Ġspray": 6583,
      "Ġshop": 6584,
      "Ġworse": 6585,
      "Ġplain": 6586,
      "ults": 6587,
      "Ġreserved": 6588,
      "Ġcomposition": 6589,
      "ĠKnow": 6590,
      "erves": 6591,
      "Ġconscious": 6592,
      "Ġamb": 6593,
      "Ġpoison": 6594,
      "Ġfeud": 6595,
      "Ġfeeding": 6596,
      "ĠEncyclopedia": 6597,
      "Ġ185": 6598,
      "There": 6599,
      "Ġapproved": 6600,
      "Ġdepos": 6601,
      "Ġideal": 6602,
      "Ġseconds": 6603,
      "Ġpainting": 6604,
      "ĠAbra": 6605,
      "Ġsignificance": 6606,
      "Ġdifficulty": 6607,
      "Ġabsolute": 6608,
      "Ġbusinesses": 6609,
      "ĠGrand": 6610,
      "Ġburning": 6611,
      "Ġsatis": 6612,
      "Ġelsewhere": 6613,
      "ĠProvince": 6614,
      "Ġfairly": 6615,
      "ĠJerusalem": 6616,
      "Ġconsequences": 6617,
      "ĠBuild": 6618,
      "Ġcolleagues": 6619,
      "Ġmanifest": 6620,
      "Ġ___": 6621,
      "aired": 6622,
      "east": 6623,
      "ka": 6624,
      "normal": 6625,
      "pread": 6626,
      "rus": 6627,
      "rans": 6628,
      "rite": 6629,
      "heast": 6630,
      "Ġwish": 6631,
      "Ġwaves": 6632,
      "Ġpapers": 6633,
      "Ġmild": 6634,
      "lets": 6635,
      "cts": 6636,
      "stone": 6637,
      "ĠCle": 6638,
      "ĠPenn": 6639,
      "Ġaren": 6640,
      "ĠHave": 6641,
      "odox": 6642,
      "ĠWil": 6643,
      "Ġsudden": 6644,
      "Ġvital": 6645,
      "Ġneur": 6646,
      "ĠLar": 6647,
      "ardens": 6648,
      "agn": 6649,
      "ĠVill": 6650,
      "Ġrow": 6651,
      "Ġrab": 6652,
      "Ġchildhood": 6653,
      "ĠAsk": 6654,
      "Ġflight": 6655,
      "Ġextend": 6656,
      "Ġexperiences": 6657,
      "hemical": 6658,
      "ropical": 6659,
      "Ġscientist": 6660,
      "Ġstarts": 6661,
      "Ġemployees": 6662,
      "Ġlaid": 6663,
      "while": 6664,
      "Ġimmigr": 6665,
      "Ġphotograph": 6666,
      "Ġdestruction": 6667,
      "ĠStudy": 6668,
      "Ġpermission": 6669,
      "prof": 6670,
      "Ġbulbs": 6671,
      "Ġestimates": 6672,
      "Ġultimately": 6673,
      "hyd": 6674,
      "Ġempire": 6675,
      "ĠRevolution": 6676,
      "ĠAuthor": 6677,
      "ĠCheck": 6678,
      "Ġphenomenon": 6679,
      "ĠDirector": 6680,
      "Ġsucceed": 6681,
      "39": 6682,
      "86": 6683,
      ":||": 6684,
      "Is": 6685,
      "cience": 6686,
      "lig": 6687,
      "Ġ<": 6688,
      "Ġtips": 6689,
      "reated": 6690,
      "atch": 6691,
      "Ġpounds": 6692,
      "eder": 6693,
      "Ġbag": 6694,
      "Ġflex": 6695,
      "roc": 6696,
      "asure": 6697,
      "ĠAD": 6698,
      "ĠAir": 6699,
      "oln": 6700,
      "ĠMac": 6701,
      "ĠPot": 6702,
      "ĠDen": 6703,
      "Ġsuitable": 6704,
      "ĠEc": 6705,
      "ĠEth": 6706,
      "ĠObs": 6707,
      "Ġenable": 6708,
      "rous": 6709,
      "outs": 6710,
      "Ġjour": 6711,
      "Ġrecy": 6712,
      "Ġages": 6713,
      "ails": 6714,
      "Ġobst": 6715,
      "exp": 6716,
      "Ġforming": 6717,
      "Ġgray": 6718,
      "idespread": 6719,
      "Ġ1992": 6720,
      "Ġcourses": 6721,
      "ĠOnline": 6722,
      "Ġsupports": 6723,
      "Ġsupporting": 6724,
      "incoln": 6725,
      "azine": 6726,
      "Ġopposition": 6727,
      "ĠPolit": 6728,
      "Ġpermit": 6729,
      "Ġjudges": 6730,
      "ĠSecurity": 6731,
      "Ġafford": 6732,
      "Ġcalcium": 6733,
      "Ġmixed": 6734,
      "ĠEgyptian": 6735,
      "ĠModern": 6736,
      "Ġneighb": 6737,
      "Ġscheme": 6738,
      "ĠMiller": 6739,
      "Ġnewspaper": 6740,
      "thritis": 6741,
      "91": 6742,
      "RC": 6743,
      "effect": 6744,
      "gs": 6745,
      "gu": 6746,
      "ko": 6747,
      "mes": 6748,
      "nel": 6749,
      "Ġmold": 6750,
      "Ġlin": 6751,
      "ĠCall": 6752,
      "igor": 6753,
      "Ġongoing": 6754,
      "ulpt": 6755,
      "ĠMel": 6756,
      "Ġexclus": 6757,
      "ĠWrit": 6758,
      "ĠWik": 6759,
      "umes": 6760,
      "ĠDown": 6761,
      "ĠDDT": 6762,
      "achers": 6763,
      "ĠRay": 6764,
      "ĠLincoln": 6765,
      "iph": 6766,
      "ĠItaly": 6767,
      "Ġprev": 6768,
      "Ġagents": 6769,
      "Ġraw": 6770,
      "Ġemissivity": 6771,
      "Ġformat": 6772,
      "ĠHoward": 6773,
      "Ġpatch": 6774,
      "ĠSpain": 6775,
      "Ġdescend": 6776,
      "Ġplanned": 6777,
      "Ġpassing": 6778,
      "ĠBeh": 6779,
      "Ġlabel": 6780,
      "Ġturns": 6781,
      "Ġrepresentatives": 6782,
      "ĠPoland": 6783,
      "ourage": 6784,
      "Ġforests": 6785,
      "Ġordinary": 6786,
      "ĠSimilar": 6787,
      "Ġcopyright": 6788,
      "Ġelectrons": 6789,
      "Ġcooling": 6790,
      "Ġbranches": 6791,
      "Ġfixed": 6792,
      "Ġcrops": 6793,
      "Ġsaved": 6794,
      "Ġdynamic": 6795,
      "Ġunusual": 6796,
      "'.": 6797,
      "Americ": 6798,
      "EM": 6799,
      "iary": 6800,
      "kin": 6801,
      "oom": 6802,
      "pass": 6803,
      "run": 6804,
      "vin": 6805,
      "Ġ)": 6806,
      "Ġaward": 6807,
      "iti": 6808,
      "Ġfilled": 6809,
      "aning": 6810,
      "Ġmand": 6811,
      "Ġdream": 6812,
      "asters": 6813,
      "ĠTop": 6814,
      "Ġlots": 6815,
      "Ġgap": 6816,
      "ĠSpe": 6817,
      "ĠSup": 6818,
      "otland": 6819,
      "Ġforth": 6820,
      "Ġstreet": 6821,
      "Ġwhatever": 6822,
      "ifts": 6823,
      "thodox": 6824,
      "estone": 6825,
      "ĠDO": 6826,
      "ĠEffect": 6827,
      "ĠFBI": 6828,
      "acent": 6829,
      "ĠRom": 6830,
      "ĠGold": 6831,
      "ĠLos": 6832,
      "ĠOtt": 6833,
      "ĠJe": 6834,
      "Ġabund": 6835,
      "Ġunions": 6836,
      "Ġunemploy": 6837,
      "enses": 6838,
      "ailed": 6839,
      "Ġproduces": 6840,
      "ĠAsian": 6841,
      "ucose": 6842,
      "Ġinterface": 6843,
      "Ġintervention": 6844,
      "Ġpresents": 6845,
      "Ġdiscipl": 6846,
      "Ġstudying": 6847,
      "ĠResearchers": 6848,
      "Ġparam": 6849,
      "ĠExper": 6850,
      "Ġhyper": 6851,
      "Ġopening": 6852,
      "Ġpositions": 6853,
      "Ġtruly": 6854,
      "prise": 6855,
      "Ġargue": 6856,
      "Ġinteractive": 6857,
      "Ġepidem": 6858,
      "Ġconcentrate": 6859,
      "ascular": 6860,
      "aska": 6861,
      "ĠParty": 6862,
      "Ġsuspect": 6863,
      "Ġtribes": 6864,
      "Ġimmediate": 6865,
      "ĠProtection": 6866,
      "ĠSpecial": 6867,
      "ĠCopyright": 6868,
      "warf": 6869,
      "Ġbreathing": 6870,
      "Ġinhabit": 6871,
      "ĠRichard": 6872,
      "Ġescape": 6873,
      "Ġnarrative": 6874,
      "ĠWatershed": 6875,
      "Ġventricle": 6876,
      "ĠTanzania": 6877,
      "Fig": 6878,
      "ao": 6879,
      "car": 6880,
      "kins": 6881,
      "then": 6882,
      "yer": 6883,
      "Ġid": 6884,
      "Ġtall": 6885,
      "Ġtunn": 6886,
      "Ġtaste": 6887,
      "inn": 6888,
      "Ġtheore": 6889,
      "itative": 6890,
      "itals": 6891,
      "Ġpil": 6892,
      "iondo": 6893,
      "Ġthor": 6894,
      "ĠTem": 6895,
      "Ġlobe": 6896,
      "ĠSaf": 6897,
      "cel": 6898,
      "ĠMah": 6899,
      "ĠPop": 6900,
      "ĠPage": 6901,
      "ĠBal": 6902,
      "ĠBÃ¶n": 6903,
      "ĠHay": 6904,
      "ĠHoly": 6905,
      "abul": 6906,
      "rier": 6907,
      "ĠLol": 6908,
      "Ġspok": 6909,
      "Ġplas": 6910,
      "Ġinflamm": 6911,
      "Ġoutbre": 6912,
      "iana": 6913,
      "Ġscript": 6914,
      "phone": 6915,
      "ĠUnf": 6916,
      "oven": 6917,
      "Ġassume": 6918,
      "rows": 6919,
      "Ġinstalled": 6920,
      "Ġentered": 6921,
      "Ġdepartment": 6922,
      "Ġmyth": 6923,
      "mann": 6924,
      "Ġcareful": 6925,
      "arents": 6926,
      "ĠAdv": 6927,
      "Ġpolitics": 6928,
      "Ġprompt": 6929,
      "Ġimproving": 6930,
      "ĠConservation": 6931,
      "Ġparticipate": 6932,
      "Ġsettlement": 6933,
      "Ġcomplicated": 6934,
      "Ġmechanisms": 6935,
      "Ġconsistent": 6936,
      "ĠAgricult": 6937,
      "Ġleadership": 6938,
      "Ġsandy": 6939,
      "Ġagriculture": 6940,
      "Ġcomparison": 6941,
      "ĠFinally": 6942,
      "Ġassigned": 6943,
      "Ġlaser": 6944,
      "communications": 6945,
      "ĠInterpretant": 6946,
      "ĠChicago": 6947,
      "ĠSupreme": 6948,
      "'d": 6949,
      "93": 6950,
      "how": 6951,
      "liam": 6952,
      "making": 6953,
      "rine": 6954,
      "tes": 6955,
      "rep": 6956,
      "Ġsands": 6957,
      "Ġcats": 6958,
      "icks": 6959,
      "Ġhidden": 6960,
      "Ġthalam": 6961,
      "ilation": 6962,
      "ĠTitle": 6963,
      "Ġly": 6964,
      "Ġnoun": 6965,
      "idance": 6966,
      "Ġforget": 6967,
      "Ġyield": 6968,
      "essions": 6969,
      "ĠFour": 6970,
      "ĠNation": 6971,
      "iva": 6972,
      "ĠGar": 6973,
      "Ġintense": 6974,
      "ĠThree": 6975,
      "Ġcompris": 6976,
      "Ġdoi": 6977,
      "Ġbutter": 6978,
      "Ġarray": 6979,
      "ressive": 6980,
      "ĠStation": 6981,
      "ensions": 6982,
      "Ġpreval": 6983,
      "ounded": 6984,
      "Ġpeak": 6985,
      "Ġraise": 6986,
      "Ġpool": 6987,
      "Ġindigenous": 6988,
      "Ġmedication": 6989,
      "Ġgrade": 6990,
      "Ġsets": 6991,
      "ĠScott": 6992,
      "Ġconfir": 6993,
      "ĠConvention": 6994,
      "Ġ150": 6995,
      "Ġvalu": 6996,
      "ĠAdd": 6997,
      "Ġhandle": 6998,
      "Ġopposed": 6999,
      "ĠExam": 7000,
      "ĠTeacher": 7001,
      "Ġrecognition": 7002,
      "ĠCoast": 7003,
      "Ġconcrete": 7004,
      "Ġmechanical": 7005,
      "ĠBooks": 7006,
      "Ġimplementation": 7007,
      "ĠKeep": 7008,
      "Ġattempts": 7009,
      "ĠMetis": 7010,
      "Ġevaluation": 7011,
      "Ġdecreased": 7012,
      "ĠArabic": 7013,
      "Ġnutrition": 7014,
      "Ġobtain": 7015,
      "Ġtransportation": 7016,
      "Ġquantum": 7017,
      "Ġexpanded": 7018,
      "ĠSurvey": 7019,
      "ĠGrass": 7020,
      "Ġcorresponding": 7021,
      "ĠOsage": 7022,
      "Ġratio": 7023,
      "Ġhorizont": 7024,
      "Ġreceptor": 7025,
      "ĠOpen": 7026,
      "ĠGeorgia": 7027,
      "emetery": 7028,
      "MO": 7029,
      "When": 7030,
      "You": 7031,
      "fall": 7032,
      "Ġ||": 7033,
      "Ġtank": 7034,
      "esides": 7035,
      "edu": 7036,
      "arant": 7037,
      "Ġdiver": 7038,
      "Ġhipp": 7039,
      "Ġhunting": 7040,
      "Ġnodes": 7041,
      "ette": 7042,
      "uts": 7043,
      "ĠCub": 7044,
      "igan": 7045,
      "igra": 7046,
      "irs": 7047,
      "add": 7048,
      "using": 7049,
      "ĠFund": 7050,
      "Ġvoc": 7051,
      "Ġchair": 7052,
      "Ġran": 7053,
      "Ġsharing": 7054,
      "plant": 7055,
      "Ġdisaster": 7056,
      "Ġinches": 7057,
      "Ġarts": 7058,
      "Ġinfrastructure": 7059,
      "Ġunderlying": 7060,
      "Ġaccum": 7061,
      "erted": 7062,
      "Ġdeck": 7063,
      "Ġmodified": 7064,
      "Ġsmooth": 7065,
      "Ġknows": 7066,
      "They": 7067,
      "oung": 7068,
      "Ġboys": 7069,
      "Ġengines": 7070,
      "Ġpropos": 7071,
      "Ġdriven": 7072,
      "Ġconnections": 7073,
      "Ġcharacterized": 7074,
      "Ġgrew": 7075,
      "Ġinfluenced": 7076,
      "Ġessentially": 7077,
      "Ġrivers": 7078,
      "Ġindicates": 7079,
      "Ġaccounts": 7080,
      "Ġdivor": 7081,
      "ĠSupp": 7082,
      "Ġdefinite": 7083,
      "Ġbabies": 7084,
      "ĠSolar": 7085,
      "Ġadministration": 7086,
      "zyme": 7087,
      "gregation": 7088,
      "Ġfertiliz": 7089,
      "Ġvoice": 7090,
      "Ġdollars": 7091,
      "ĠLoliondo": 7092,
      "liament": 7093,
      "74": 7094,
      "92": 7095,
      "EC": 7096,
      "ca": 7097,
      "mad": 7098,
      "Ġâ": 7099,
      "inic": 7100,
      "Ġpond": 7101,
      "Ġbru": 7102,
      "icide": 7103,
      "Ġdust": 7104,
      "ĠTreatment": 7105,
      "Ġgy": 7106,
      "Ġgender": 7107,
      "ola": 7108,
      "ĠSO": 7109,
      "ĠMap": 7110,
      "ĠMeth": 7111,
      "aying": 7112,
      "Ġprosec": 7113,
      "Ġorbit": 7114,
      "Ġalter": 7115,
      "Ġcomfort": 7116,
      "ĠNep": 7117,
      "ĠNever": 7118,
      "ivated": 7119,
      "Ġcontained": 7120,
      "Ġdism": 7121,
      "ĠKings": 7122,
      "Ġoutcomes": 7123,
      "Ġsculpt": 7124,
      "Ġrose": 7125,
      "ificial": 7126,
      "Ġphosph": 7127,
      "Ġexamined": 7128,
      "Ġtransition": 7129,
      "Ġearn": 7130,
      "Ġdefic": 7131,
      "Ġdistricts": 7132,
      "Ġcurriculum": 7133,
      "Ġshell": 7134,
      "ĠIndeed": 7135,
      "Ġglass": 7136,
      "Ġmaintenance": 7137,
      "Ġplane": 7138,
      "2011": 7139,
      "ĠLeon": 7140,
      "Ġprevention": 7141,
      "2008": 7142,
      "Ġoptim": 7143,
      "ĠMinister": 7144,
      "Ġabsence": 7145,
      "Ġdivision": 7146,
      "Ġrotor": 7147,
      "Ġinterpretant": 7148,
      "ĠArea": 7149,
      "Ġpregnant": 7150,
      "ĠPMID": 7151,
      "Ġpurchase": 7152,
      "Ġupdated": 7153,
      "ĠForest": 7154,
      "Ġaccurate": 7155,
      "Ġsatellite": 7156,
      "ĠAdministration": 7157,
      "Ġbudget": 7158,
      "EO": 7159,
      "Gen": 7160,
      "Ph": 7161,
      "RA": 7162,
      "bel": 7163,
      "best": 7164,
      "hi": 7165,
      "los": 7166,
      "national": 7167,
      "Ġtasks": 7168,
      "Ġpor": 7169,
      "Ġboy": 7170,
      "rovers": 7171,
      "Ġhorm": 7172,
      "ĠTib": 7173,
      "ima": 7174,
      "ĠCA": 7175,
      "ĠCamp": 7176,
      "chang": 7177,
      "iger": 7178,
      "Ġstre": 7179,
      "ading": 7180,
      "ĠPract": 7181,
      "ĠBell": 7182,
      "isting": 7183,
      "ĠHor": 7184,
      "abric": 7185,
      "Ġheel": 7186,
      "ĠEst": 7187,
      "ĠForm": 7188,
      "Ġsport": 7189,
      "ogue": 7190,
      "ĠJos": 7191,
      "Ġcontroll": 7192,
      "Ġkin": 7193,
      "ĠKansas": 7194,
      "Ġsole": 7195,
      "Ġtheme": 7196,
      "Ġrocks": 7197,
      "Ġproved": 7198,
      "ietal": 7199,
      "Ġcovers": 7200,
      "....": 7201,
      "Ġflo": 7202,
      "Ġknowing": 7203,
      "Ġbackup": 7204,
      "roscop": 7205,
      "Ġlearner": 7206,
      "Ġfinds": 7207,
      "Ġexplicit": 7208,
      "Ġtemple": 7209,
      "Ġdetermination": 7210,
      "Ġmuscles": 7211,
      "Ġinduced": 7212,
      "Ġplaying": 7213,
      "Ġputting": 7214,
      "Ġprotective": 7215,
      "Ġsensitivity": 7216,
      "Ġordered": 7217,
      "Ġvirtually": 7218,
      "Ġfighting": 7219,
      "Ġarrived": 7220,
      "Ġbranch": 7221,
      "Ġphysician": 7222,
      "Ġnegotiations": 7223,
      "Ġterritory": 7224,
      "specific": 7225,
      "Ġsubsequent": 7226,
      "Ġcommitment": 7227,
      "Ġtemporal": 7228,
      "ĠValencia": 7229,
      "New": 7230,
      "har": 7231,
      "vard": 7232,
      "zym": 7233,
      "Ã¼": 7234,
      "Ġtor": 7235,
      "inates": 7236,
      "Ġsan": 7237,
      "esity": 7238,
      "Ġwage": 7239,
      "itime": 7240,
      "Ġbor": 7241,
      "Ġdwarf": 7242,
      "Ġlake": 7243,
      "ĠSund": 7244,
      "ulus": 7245,
      "ulates": 7246,
      "ĠPo": 7247,
      "ĠBC": 7248,
      "ĠBig": 7249,
      "ĠBank": 7250,
      "ĠHaving": 7251,
      "Ġdegra": 7252,
      "ĠWord": 7253,
      "esthetic": 7254,
      "ĠFair": 7255,
      "ivered": 7256,
      "Ġneuro": 7257,
      "Ġchain": 7258,
      "Ġchart": 7259,
      "Ġru": 7260,
      "Ġleaf": 7261,
      "pling": 7262,
      "ulty": 7263,
      "Ġwilling": 7264,
      "Ġrecording": 7265,
      "Ġrail": 7266,
      "Ġrelief": 7267,
      "ribe": 7268,
      "Ġattend": 7269,
      "Ġgrains": 7270,
      "Ġgrazing": 7271,
      "Ġedition": 7272,
      "Ġextin": 7273,
      "Ġseeking": 7274,
      "Ġstatements": 7275,
      "Ġtreating": 7276,
      "Ġdownload": 7277,
      "Ġpressures": 7278,
      "Ġstanding": 7279,
      "Ġrestoration": 7280,
      "Ġveter": 7281,
      "ĠClimate": 7282,
      "Ġfourth": 7283,
      "Ġmarkets": 7284,
      "Ġzones": 7285,
      "Ġcreates": 7286,
      "Ġparticipation": 7287,
      "Ġdipl": 7288,
      "Ġcovering": 7289,
      "Ġroutine": 7290,
      "Ġcoastal": 7291,
      "Ġtribe": 7292,
      "ĠServer": 7293,
      "ĠDarwin": 7294,
      "ĠLaboratory": 7295,
      "ĠAND": 7296,
      "Ġmathematics": 7297,
      "ĠStandard": 7298,
      "Ġcamera": 7299,
      "Ġthermal": 7300,
      "Ġpesticides": 7301,
      "Ġexplanation": 7302,
      "unicipal": 7303,
      "ĠUnfortunately": 7304,
      "\")": 7305,
      "02": 7306,
      "61": 7307,
      "71": 7308,
      "He": 7309,
      "hum": 7310,
      "li": 7311,
      "hea": 7312,
      "Ġod": 7313,
      "atis": 7314,
      "Ġwidespread": 7315,
      "Ġben": 7316,
      "arity": 7317,
      "ĠTable": 7318,
      "Ġlit": 7319,
      "Ġbeings": 7320,
      "ĠAccess": 7321,
      "Ġgiant": 7322,
      "olit": 7323,
      "urb": 7324,
      "Ġproof": 7325,
      "ĠPoint": 7326,
      "Ġsup": 7327,
      "ĠEU": 7328,
      "ĠEr": 7329,
      "ĠRen": 7330,
      "Ġvan": 7331,
      "ivest": 7332,
      "Ġrank": 7333,
      "ĠOk": 7334,
      "ĠOBC": 7335,
      "Ġenlar": 7336,
      "ĠJo": 7337,
      "Ġintensity": 7338,
      "ipital": 7339,
      "Ġperceived": 7340,
      "soft": 7341,
      "Ġinfant": 7342,
      "reek": 7343,
      "Ġtrain": 7344,
      "pha": 7345,
      "Ġconserv": 7346,
      "weight": 7347,
      "erman": 7348,
      "Ġsignals": 7349,
      "Ġsmart": 7350,
      "Ġrefuge": 7351,
      "Ġdefense": 7352,
      "Ġexperimental": 7353,
      "Ġ600": 7354,
      "Ġ1993": 7355,
      "ĠSpring": 7356,
      "Ġglucose": 7357,
      "Ġmetamorph": 7358,
      "Ġpassage": 7359,
      "bean": 7360,
      "Ġbiggest": 7361,
      "ĠKingdom": 7362,
      "ĠSecret": 7363,
      "ĠAppro": 7364,
      "Ġcontainers": 7365,
      "Ġsettled": 7366,
      "ĠQuest": 7367,
      "Ġcatch": 7368,
      "ĠPrevention": 7369,
      "ĠPersian": 7370,
      "Ġecological": 7371,
      "ĠGreece": 7372,
      "Ġexception": 7373,
      "Ġangle": 7374,
      "Ġmanufacturing": 7375,
      "Ġsongs": 7376,
      "Ġsulcus": 7377,
      "oglob": 7378,
      "Ġhazardous": 7379,
      "Ġvaluable": 7380,
      "69": 7381,
      "800": 7382,
      "But": 7383,
      "CS": 7384,
      "QL": 7385,
      "spe": 7386,
      "uels": 7387,
      "ĠÎ": 7388,
      "Ġaims": 7389,
      "oning": 7390,
      "Ġsight": 7391,
      "Ġcort": 7392,
      "Ġft": 7393,
      "Ġdiverse": 7394,
      "asp": 7395,
      "omal": 7396,
      "Ġnerve": 7397,
      "sey": 7398,
      "Ġgather": 7399,
      "ĠIV": 7400,
      "irit": 7401,
      "Ġconclus": 7402,
      "ĠRob": 7403,
      "ĠRoss": 7404,
      "ĠRoy": 7405,
      "Ġcann": 7406,
      "Ġenzyme": 7407,
      "allow": 7408,
      "acts": 7409,
      "Ġdisput": 7410,
      "Ġkit": 7411,
      "Ġ1950": 7412,
      "Ġresid": 7413,
      "Ġdoor": 7414,
      "Ġ34": 7415,
      "Ġgenetics": 7416,
      "Ġrac": 7417,
      "Ġaccord": 7418,
      "Ġtransc": 7419,
      "Ġoccas": 7420,
      "Ġrequest": 7421,
      "Ġcorner": 7422,
      "ounter": 7423,
      "ĠIsa": 7424,
      "Ġpublication": 7425,
      "Ġguarant": 7426,
      "Ġrestore": 7427,
      "roduction": 7428,
      "ĠAbd": 7429,
      "2004": 7430,
      "Ġemployers": 7431,
      "elfare": 7432,
      "Ġdemonstrate": 7433,
      "liest": 7434,
      "Ġgreenhouse": 7435,
      "Ġbullying": 7436,
      "Ġembry": 7437,
      "Ġfiber": 7438,
      "Ġsequences": 7439,
      "Ġbegun": 7440,
      "ĠCommunity": 7441,
      "Ġjurors": 7442,
      "Ġeggs": 7443,
      "ĠDaniel": 7444,
      "Ġtrouble": 7445,
      "Ġaccompan": 7446,
      "ĠOxford": 7447,
      "ĠGeneva": 7448,
      "Ġneurons": 7449,
      "73": 7450,
      "EE": 7451,
      "How": 7452,
      "cd": 7453,
      "gans": 7454,
      "Ġcub": 7455,
      "Ġprairie": 7456,
      "Ġbio": 7457,
      "Ġloyal": 7458,
      "ĠSS": 7459,
      "rape": 7460,
      "ĠMove": 7461,
      "ĠMaterial": 7462,
      "ĠPsych": 7463,
      "Ġorient": 7464,
      "ĠHear": 7465,
      "Ġdeeper": 7466,
      "Ġhepat": 7467,
      "ĠFind": 7468,
      "ĠNext": 7469,
      "ocamp": 7470,
      "ĠLu": 7471,
      "Ġnotion": 7472,
      "actic": 7473,
      "Ġplus": 7474,
      "Ġcontrovers": 7475,
      "igned": 7476,
      "Ġevident": 7477,
      "Ġunable": 7478,
      "Ġcommission": 7479,
      "ĠView": 7480,
      "Ġundert": 7481,
      "Ġdevelopments": 7482,
      "Ġacknow": 7483,
      "Ġcounties": 7484,
      "Ġedge": 7485,
      "Ġeditor": 7486,
      "Ġdistant": 7487,
      "Ġmarried": 7488,
      "Ġoccurring": 7489,
      "ercury": 7490,
      "Ġcultures": 7491,
      "Ġchest": 7492,
      "Ġdelay": 7493,
      "Ġbeneficial": 7494,
      "Ġdifficulties": 7495,
      "Ġprotecting": 7496,
      "Ġcircle": 7497,
      "Ġfunds": 7498,
      "hetor": 7499,
      "Ġverb": 7500,
      "Ġfrontal": 7501,
      "Ġoccupied": 7502,
      "Ġdanger": 7503,
      "Ġscreening": 7504,
      "Ġconstantly": 7505,
      "Ġmerch": 7506,
      "Ġranging": 7507,
      "Ġinitiative": 7508,
      "Ġisolated": 7509,
      "Ġharmful": 7510,
      "Ġpreferred": 7511,
      "Ġgravels": 7512,
      "ĠMartin": 7513,
      "Ġsharp": 7514,
      "athered": 7515,
      "Ġreclaimed": 7516,
      "UT": 7517,
      "aud": 7518,
      "from": 7519,
      "foot": 7520,
      "hus": 7521,
      "iotic": 7522,
      "uracy": 7523,
      "ye": 7524,
      "yers": 7525,
      "Ġcars": 7526,
      "isons": 7527,
      "itled": 7528,
      "Ġpus": 7529,
      "Ġfabric": 7530,
      "Ġmouse": 7531,
      "Ġmaps": 7532,
      "Ġmaster": 7533,
      "Ġdiam": 7534,
      "Ġholid": 7535,
      "cture": 7536,
      "omach": 7537,
      "Ġlob": 7538,
      "Ġgardens": 7539,
      "oline": 7540,
      "ether": 7541,
      "raction": 7542,
      "ami": 7543,
      "ĠMur": 7544,
      "elve": 7545,
      "ĠHP": 7546,
      "ĠHill": 7547,
      "ĠRock": 7548,
      "Ġneut": 7549,
      "ĠLess": 7550,
      "Ġshift": 7551,
      "ĠIns": 7552,
      "Ġjump": 7553,
      "iano": 7554,
      "Ġ38": 7555,
      "teenth": 7556,
      "Ġreliable": 7557,
      "Ġ48": 7558,
      "Ġpharm": 7559,
      "Ġattitude": 7560,
      "rowing": 7561,
      "Ġseeing": 7562,
      "Ġcorruption": 7563,
      "Ġreaders": 7564,
      "Ġdirections": 7565,
      "ĠConst": 7566,
      "ĠCentre": 7567,
      "ĠPlant": 7568,
      "Ġviewed": 7569,
      "Ġanalog": 7570,
      "Ġfaced": 7571,
      "Ġpreventing": 7572,
      "ĠActs": 7573,
      "Ġexercises": 7574,
      "Ġmaintained": 7575,
      "Ġmixture": 7576,
      "Ġjoin": 7577,
      "Ġsuffer": 7578,
      "Ġsuffering": 7579,
      "ĠLawrence": 7580,
      "ENT": 7581,
      "Ġinterpretation": 7582,
      "Ġdependent": 7583,
      "Ġimplications": 7584,
      "ĠMichigan": 7585,
      "onald": 7586,
      "Ġtimber": 7587,
      "Ġcrucial": 7588,
      "Ġsenior": 7589,
      "iotics": 7590,
      "ĠOrganization": 7591,
      "hua": 7592,
      "Ġintelligence": 7593,
      "ĠCarolina": 7594,
      "Ġhemisphere": 7595,
      "100": 7596,
      "43": 7597,
      "Cl": 7598,
      "cons": 7599,
      "last": 7600,
      "under": 7601,
      "inces": 7602,
      "Ġcattle": 7603,
      "alm": 7604,
      "Ġbin": 7605,
      "Ġing": 7606,
      "Ġeld": 7607,
      "ĠTenn": 7608,
      "Ġislands": 7609,
      "ĠAff": 7610,
      "imicro": 7611,
      "ĠCP": 7612,
      "ĠTheory": 7613,
      "amar": 7614,
      "amination": 7615,
      "aded": 7616,
      "istent": 7617,
      "ĠHom": 7618,
      "ums": 7619,
      "ĠEp": 7620,
      "ĠEmer": 7621,
      "ĠFe": 7622,
      "ĠField": 7623,
      "ĠRome": 7624,
      "ĠNi": 7625,
      "ĠLo": 7626,
      "Ġshore": 7627,
      "Ġworship": 7628,
      "Ġplays": 7629,
      "Ġmanager": 7630,
      "inder": 7631,
      "Ġuncon": 7632,
      "Ġquiet": 7633,
      "Ġcolour": 7634,
      "ĠAli": 7635,
      "ĠAlbert": 7636,
      "Ġdetected": 7637,
      "Ġhighlight": 7638,
      "Ġ65": 7639,
      "Ġminerals": 7640,
      "Ġsheep": 7641,
      "Ġvalid": 7642,
      "Ġguidance": 7643,
      "Ġcontrols": 7644,
      "ĠColl": 7645,
      "Ġprominent": 7646,
      "Ġdelivered": 7647,
      "Ġcombat": 7648,
      "Ġmulti": 7649,
      "riday": 7650,
      "Ġnetworking": 7651,
      "Ġmoves": 7652,
      "Ġdiagram": 7653,
      "Ġepis": 7654,
      "Ġmoral": 7655,
      "ĠPhilosoph": 7656,
      "ĠKey": 7657,
      "ĠMorris": 7658,
      "Ġcaptured": 7659,
      "Ġwavel": 7660,
      "Ġstreams": 7661,
      "Ġalleged": 7662,
      "Ġinstitution": 7663,
      "Ġtraditions": 7664,
      "Ġeliminate": 7665,
      "Ġinherit": 7666,
      "Ġemotional": 7667,
      "ĠCambridge": 7668,
      "ĠSenate": 7669,
      "Ġkilom": 7670,
      "Ġanxiety": 7671,
      "iwert": 7672,
      "ĠSunday": 7673,
      "',": 7674,
      "66": 7675,
      "Un": 7676,
      "hop": 7677,
      "net": 7678,
      "pes": 7679,
      "ura": 7680,
      "aton": 7681,
      "Ġsod": 7682,
      "Ġcaught": 7683,
      "Ġwear": 7684,
      "isdom": 7685,
      "orr": 7686,
      "Ġfur": 7687,
      "anium": 7688,
      "icular": 7689,
      "Ġdensity": 7690,
      "Ġliver": 7691,
      "Ġluck": 7692,
      "Ġnode": 7693,
      "stract": 7694,
      "ceans": 7695,
      "ĠCy": 7696,
      "child": 7697,
      "Ġstations": 7698,
      "ulos": 7699,
      "eling": 7700,
      "Ġconven": 7701,
      "adow": 7702,
      "ĠPs": 7703,
      "Ġalive": 7704,
      "ĠWed": 7705,
      "ĠFort": 7706,
      "ĠNear": 7707,
      "Ġseeds": 7708,
      "Ġenorm": 7709,
      "ĠJr": 7710,
      "Ġimaging": 7711,
      "aph": 7712,
      "Ġincl": 7713,
      "Ġmanip": 7714,
      "ĠKn": 7715,
      "Ġuncom": 7716,
      "Ġscar": 7717,
      "Ġindirect": 7718,
      "fulness": 7719,
      "Ġpreserve": 7720,
      "Ġearliest": 7721,
      "Ġcalling": 7722,
      "Ġrefused": 7723,
      "Ġminister": 7724,
      "Ġowner": 7725,
      "ĠSeiwert": 7726,
      "Ġentry": 7727,
      "Ġdepart": 7728,
      "Ġconfig": 7729,
      "gener": 7730,
      "Ġthoughts": 7731,
      "incial": 7732,
      "Ġclassified": 7733,
      "Ġslavery": 7734,
      "Ġlowest": 7735,
      "ospitals": 7736,
      "mediate": 7737,
      "Ġoldest": 7738,
      "Ġ1982": 7739,
      "Ġdrawn": 7740,
      "Ġhappening": 7741,
      "Ġcharacteristic": 7742,
      "Ġvolt": 7743,
      "Ġcreative": 7744,
      "Ġstatistics": 7745,
      "Ġdominant": 7746,
      "Ġearthqu": 7747,
      "Ġliterary": 7748,
      "Ġstopped": 7749,
      "Ġintegration": 7750,
      "Ġhabitats": 7751,
      "Ġreflected": 7752,
      "Ġbrings": 7753,
      "Ġmachines": 7754,
      "Ġvegetation": 7755,
      "Ġwait": 7756,
      "Ġbrand": 7757,
      "Ġevaluate": 7758,
      "Ġpsychology": 7759,
      "Ġencouraged": 7760,
      "Ġfeedback": 7761,
      "uzz": 7762,
      "Ġspectrum": 7763,
      "Ġcategory": 7764,
      "Ġrenewable": 7765,
      "Ġarrested": 7766,
      "Ġannounced": 7767,
      "Ġsubstantial": 7768,
      "Ġcandidate": 7769,
      "Ġrestrictions": 7770,
      "ĠDisease": 7771,
      "Ġmourning": 7772,
      "ĠIdent": 7773,
      "abulary": 7774,
      "Ġhippocamp": 7775,
      "bar": 7776,
      "host": 7777,
      "western": 7778,
      "Ġtight": 7779,
      "Ġtaught": 7780,
      "Ġaer": 7781,
      "rection": 7782,
      "Ġsons": 7783,
      "road": 7784,
      "asive": 7785,
      "Ġhole": 7786,
      "Ġgained": 7787,
      "oler": 7788,
      "idal": 7789,
      "ĠSon": 7790,
      "ĠSearch": 7791,
      "ĠSaint": 7792,
      "rays": 7793,
      "Ġstomach": 7794,
      "ĠMA": 7795,
      "ĠPass": 7796,
      "Ġyes": 7797,
      "ĠBill": 7798,
      "Ġexchange": 7799,
      "ĠWin": 7800,
      "osion": 7801,
      "ĠEastern": 7802,
      "ĠFred": 7803,
      "Ġvot": 7804,
      "ĠNum": 7805,
      "ĠNava": 7806,
      "Ġseat": 7807,
      "Ġsees": 7808,
      "ĠLanguage": 7809,
      "ĠOS": 7810,
      "Ġenzym": 7811,
      "ella": 7812,
      "Ġdispos": 7813,
      "ĠThird": 7814,
      "ustain": 7815,
      "aked": 7816,
      "Ġarrange": 7817,
      "âĢĿ),": 7818,
      "ĠVen": 7819,
      "Ġaccuracy": 7820,
      "Ġadds": 7821,
      "ringe": 7822,
      "Ġ800": 7823,
      "Ġcharged": 7824,
      "ĠResp": 7825,
      "Ġpointed": 7826,
      "Ġaffecting": 7827,
      "Ġobser": 7828,
      "sylv": 7829,
      "Ġdeaths": 7830,
      "Ġencry": 7831,
      "Ġsentences": 7832,
      "ĠConsider": 7833,
      "Ġflower": 7834,
      "Ġpermitted": 7835,
      "Ġirre": 7836,
      "Ġalternatives": 7837,
      "Ġcapture": 7838,
      "Ġarguments": 7839,
      "hyth": 7840,
      "Ġimagine": 7841,
      "Ġhypothes": 7842,
      "ĠPhysical": 7843,
      "Ġexcessive": 7844,
      "Ġlungs": 7845,
      "Ġtomatoes": 7846,
      "Ġcooperation": 7847,
      "Ġprofessionals": 7848,
      "Ġdedicated": 7849,
      "otherapy": 7850,
      "Ġadequate": 7851,
      "ĠPennsylv": 7852,
      "American": 7853,
      "Ġtheoretical": 7854,
      "97": 7855,
      "Ar": 7856,
      "Ex": 7857,
      "SP": 7858,
      "case": 7859,
      "nom": 7860,
      "rin": 7861,
      "Äģ": 7862,
      "inux": 7863,
      "Ġcodes": 7864,
      "Ġwars": 7865,
      "Ġfurn": 7866,
      "Ġinternet": 7867,
      "Ġmol": 7868,
      "Ġtom": 7869,
      "Ġdates": 7870,
      "roke": 7871,
      "lete": 7872,
      "Ġhunt": 7873,
      "Ġthr": 7874,
      "ilateral": 7875,
      "ĠTom": 7876,
      "Ġbell": 7877,
      "Ġgym": 7878,
      "ĠSud": 7879,
      "ĠSix": 7880,
      "ĠCre": 7881,
      "ĠMos": 7882,
      "eless": 7883,
      "ĠPt": 7884,
      "ĠHa": 7885,
      "empl": 7886,
      "ĠFriday": 7887,
      "ĠRNA": 7888,
      "Ġcancers": 7889,
      "Ġspons": 7890,
      "Ġspaces": 7891,
      "ogether": 7892,
      "ells": 7893,
      "Ġadverse": 7894,
      "Ġ1920": 7895,
      "Ġarrang": 7896,
      "ĠKl": 7897,
      "Ġrecess": 7898,
      "ricted": 7899,
      "ieval": 7900,
      "Ġroots": 7901,
      "Ġram": 7902,
      "Ġprovisions": 7903,
      "Ġdecide": 7904,
      "century": 7905,
      "Ġeffectiveness": 7906,
      "ĠScotland": 7907,
      "Ġinsulin": 7908,
      "Ġinsurance": 7909,
      "ĠConference": 7910,
      "Ġhandling": 7911,
      "Ġpasses": 7912,
      "Ġlimestone": 7913,
      "ograp": 7914,
      "Ġorigins": 7915,
      "Ġperforming": 7916,
      "Ġ1984": 7917,
      "Ġhardware": 7918,
      "Ġheads": 7919,
      "ĠOrthodox": 7920,
      "Ġhappy": 7921,
      "Ġasking": 7922,
      "Ġholds": 7923,
      "ĠCDs": 7924,
      "Ġliberal": 7925,
      "Ġprisoner": 7926,
      "Ġconsumers": 7927,
      "Ġrespectively": 7928,
      "Ġgradually": 7929,
      "Ġvariable": 7930,
      "Ġdrawing": 7931,
      "Ġtumors": 7932,
      "Ġofficer": 7933,
      "Ġlifetime": 7934,
      "Ġlegislation": 7935,
      "Ġaimed": 7936,
      "Ġfluoride": 7937,
      "Ġinactivation": 7938,
      "Ġvulnerable": 7939,
      "Ġinhabitants": 7940,
      "bestos": 7941,
      "rapeut": 7942,
      "Ġingred": 7943,
      "imicrobial": 7944,
      "03": 7945,
      "EF": 7946,
      "For": 7947,
      "fts": 7948,
      "rd": 7949,
      "zer": 7950,
      "Ã¤": 7951,
      "atal": 7952,
      "Ġsessions": 7953,
      "Ġwelfare": 7954,
      "orter": 7955,
      "ĠpH": 7956,
      "Ġble": 7957,
      "Ġbath": 7958,
      "arter": 7959,
      "ican": 7960,
      "ctor": 7961,
      "Ġnan": 7962,
      "ĠSar": 7963,
      "ĠCult": 7964,
      "Ġstone": 7965,
      "ĠMen": 7966,
      "ĠPet": 7967,
      "Ġorgans": 7968,
      "oding": 7969,
      "estine": 7970,
      "riers": 7971,
      "ĠDou": 7972,
      "aints": 7973,
      "ocated": 7974,
      "ĠLight": 7975,
      "Ġincent": 7976,
      "enda": 7977,
      "ipedia": 7978,
      "Ġclock": 7979,
      "Ġapplet": 7980,
      "Ġuniversity": 7981,
      "Ġimpair": 7982,
      "Ġdesired": 7983,
      "Ġconsensus": 7984,
      "ĠUnlike": 7985,
      "Ġaccident": 7986,
      "Ġresemb": 7987,
      "ĠAnalysis": 7988,
      "hesis": 7989,
      "ĠComple": 7990,
      "ĠComput": 7991,
      "ĠWeiner": 7992,
      "Ġvisited": 7993,
      "Ġconfirm": 7994,
      "Ġconsidering": 7995,
      "Ġadvances": 7996,
      "ashion": 7997,
      "Ġoperated": 7998,
      "Ġprovider": 7999,
      "ĠOrig": 8000,
      "Ġfraction": 8001,
      "ependent": 8002,
      "Ġjudicial": 8003,
      "____": 8004,
      "Ġimprovement": 8005,
      "Ġheavily": 8006,
      "Ġmothers": 8007,
      "Ġsuffered": 8008,
      "ĠEmperor": 8009,
      "ĠServices": 8010,
      "Ġprinted": 8011,
      "Ġinspired": 8012,
      "Ġconversion": 8013,
      "Ġcategories": 8014,
      "ĠHungarian": 8015,
      "charge": 8016,
      "Ġarchitecture": 8017,
      "ĠNavy": 8018,
      "Ġappointed": 8019,
      "Ġremarkable": 8020,
      "Ġlesbian": 8021,
      "Ġcerebral": 8022,
      "ĠGrassi": 8023,
      "ĠTibet": 8024,
      "Ġstreets": 8025,
      "Ġwavelength": 8026,
      ".âĢĻ": 8027,
      "08": 8028,
      "63": 8029,
      "On": 8030,
      "eur": 8031,
      "eers": 8032,
      "hio": 8033,
      "iating": 8034,
      "lot": 8035,
      "uan": 8036,
      "yles": 8037,
      "Ġ×": 8038,
      "Ġcook": 8039,
      "Ġwearing": 8040,
      "isk": 8041,
      "Ġfellow": 8042,
      "Ġinner": 8043,
      "Ġmm": 8044,
      "Ġmigr": 8045,
      "icians": 8046,
      "Ġreaching": 8047,
      "Ġreef": 8048,
      "Ġgathered": 8049,
      "ĠCare": 8050,
      "ĠCirc": 8051,
      "ĠMid": 8052,
      "ĠMond": 8053,
      "ĠDom": 8054,
      "ĠDictionary": 8055,
      "Ġhero": 8056,
      "ĠEz": 8057,
      "ĠLy": 8058,
      "ĠList": 8059,
      "Ġuniform": 8060,
      "ĠChall": 8061,
      "ĠChile": 8062,
      "ishment": 8063,
      "Ġthanks": 8064,
      "ĠVar": 8065,
      "Ġquas": 8066,
      "Ġaged": 8067,
      "Ġdesire": 8068,
      "Ġobesity": 8069,
      "Ġpoem": 8070,
      "Ġregime": 8071,
      "oves": 8072,
      "angered": 8073,
      "Ġminimal": 8074,
      "cling": 8075,
      "Ġreduces": 8076,
      "Ġdirectory": 8077,
      "including": 8078,
      "Ġwriters": 8079,
      "Ġtrip": 8080,
      "Ġmeasuring": 8081,
      "Ġdetermines": 8082,
      "ĠSoft": 8083,
      "Ġplanted": 8084,
      "Ġaccessible": 8085,
      "Ġkeeps": 8086,
      "Ġdramatic": 8087,
      "ographical": 8088,
      "Ġcombine": 8089,
      "Ġdiscussions": 8090,
      "2009": 8091,
      "Ġassociate": 8092,
      "Ġfunctional": 8093,
      "ĠWithout": 8094,
      "Ġspacecraft": 8095,
      "ĠUSB": 8096,
      "Ġconsideration": 8097,
      "ursday": 8098,
      "Ġemerging": 8099,
      "ĠHarvard": 8100,
      "Ġconsisting": 8101,
      "Ġmagnet": 8102,
      "Ġfulf": 8103,
      "ĠAustralian": 8104,
      "Ġturning": 8105,
      "Ġcardi": 8106,
      "Ġsyncopation": 8107,
      "Ġuncertain": 8108,
      "Ġlicense": 8109,
      "ĠMountains": 8110,
      "Ġrobot": 8111,
      "ĠAvoid": 8112,
      "ĠSpecies": 8113,
      "Ġqualities": 8114,
      "Ġmissing": 8115,
      "Ġexhibit": 8116,
      "Ġinstruments": 8117,
      "Ġdiscoveries": 8118,
      "Ġdropped": 8119,
      "Ġgalaxy": 8120,
      "Ġminimize": 8121,
      "Ġclothing": 8122,
      "ĠUtah": 8123,
      "ĠNGOs": 8124,
      "ĠConnect": 8125,
      "ĠSlovakia": 8126,
      "ĠFollowing": 8127,
      "ĠWhether": 8128,
      "Ġjourney": 8129,
      "Ġspoken": 8130,
      "?âĢĿ": 8131,
      "awn": 8132,
      "burn": 8133,
      "brid": 8134,
      "sen": 8135,
      "sue": 8136,
      "uation": 8137,
      "Ġtack": 8138,
      "real": 8139,
      "encing": 8140,
      "Ġcav": 8141,
      "itarian": 8142,
      "Ġbomb": 8143,
      "leys": 8144,
      "Ġloved": 8145,
      "Ġninet": 8146,
      "stic": 8147,
      "sell": 8148,
      "ĠSat": 8149,
      "utch": 8150,
      "ĠIX": 8151,
      "ĠMad": 8152,
      "ĠEss": 8153,
      "ĠLater": 8154,
      "ĠLands": 8155,
      "ĠJob": 8156,
      "Ġabd": 8157,
      "Ġabnormal": 8158,
      "ĠUSA": 8159,
      "Ġplenty": 8160,
      "apor": 8161,
      "Ġincident": 8162,
      "Ġcomprom": 8163,
      "Ġdose": 8164,
      "Ġevil": 8165,
      "Ġevolved": 8166,
      "Ġinfants": 8167,
      "Ġouter": 8168,
      "ube": 8169,
      "Ġrecover": 8170,
      "ĠYoung": 8171,
      "Ġknee": 8172,
      "Ġblank": 8173,
      "Ġprime": 8174,
      "archy": 8175,
      "Ġcoverage": 8176,
      "Ġassist": 8177,
      "Ġartificial": 8178,
      "Ġtestim": 8179,
      "Ġended": 8180,
      "gged": 8181,
      "Ġwarning": 8182,
      "Ġ1991": 8183,
      "Ġboost": 8184,
      "def": 8185,
      "Ġplanets": 8186,
      "Ġdesigns": 8187,
      "Ġslave": 8188,
      "ĠLevel": 8189,
      "ĠBeing": 8190,
      "Ġmusical": 8191,
      "ĠMedia": 8192,
      "Ġexisted": 8193,
      "ĠWithin": 8194,
      "Ġstronger": 8195,
      "ĠContin": 8196,
      "Ġargues": 8197,
      "Ġcopies": 8198,
      "Ġgasoline": 8199,
      "Ġsituated": 8200,
      "ĠSmall": 8201,
      "ĠMeteor": 8202,
      "Ġappeal": 8203,
      "Ġmobility": 8204,
      "Ġancestors": 8205,
      "Ġinitiatives": 8206,
      "Ġbehaviors": 8207,
      "Ġjuvenile": 8208,
      "Ġbillions": 8209,
      "ĠFamily": 8210,
      "Ġthorough": 8211,
      "ĠNevertheless": 8212,
      "ĠPennsylvania": 8213,
      ")|": 8214,
      "So": 8215,
      "chen": 8216,
      "iability": 8217,
      "mitted": 8218,
      "uar": 8219,
      "Ġ?": 8220,
      "inch": 8221,
      "Ġov": 8222,
      "Ġske": 8223,
      "Ġsales": 8224,
      "Ġcm": 8225,
      "Ġfashion": 8226,
      "Ġmur": 8227,
      "Ġmoon": 8228,
      "oul": 8229,
      "Ġdrain": 8230,
      "rooms": 8231,
      "Ġrely": 8232,
      "Ġreign": 8233,
      "Ġreuse": 8234,
      "ĠTake": 8235,
      "omed": 8236,
      "omers": 8237,
      "Ġnice": 8238,
      "ĠCond": 8239,
      "chron": 8240,
      "irds": 8241,
      "ulatory": 8242,
      "Ġproceed": 8243,
      "Ġconj": 8244,
      "ĠPC": 8245,
      "ĠParents": 8246,
      "terol": 8247,
      "rive": 8248,
      "Ġhence": 8249,
      "ĠRus": 8250,
      "ĠRio": 8251,
      "ĠNon": 8252,
      "ĠLic": 8253,
      "ĠLang": 8254,
      "Ġrice": 8255,
      "ĠThink": 8256,
      "ĠThursday": 8257,
      "Ġarthritis": 8258,
      "inds": 8259,
      "ĠChange": 8260,
      "Ġ33": 8261,
      "Ġroles": 8262,
      "Ġroads": 8263,
      "Ġraising": 8264,
      "Ġactively": 8265,
      "Ġanywhere": 8266,
      "Ġneedle": 8267,
      "Ġpron": 8268,
      "ĠAnc": 8269,
      "Ġsupplement": 8270,
      "ĠProp": 8271,
      "Ġexamination": 8272,
      "Ġtransf": 8273,
      "Ġcallos": 8274,
      "Ġtechnological": 8275,
      "Ġentering": 8276,
      "Ġinsc": 8277,
      "Ġreader": 8278,
      "stitutes": 8279,
      "Ġconference": 8280,
      "Ġskill": 8281,
      "Ġmarg": 8282,
      "Ġwriter": 8283,
      "Ġpresentation": 8284,
      "Ġdetermining": 8285,
      "Ġparas": 8286,
      "Ġanalys": 8287,
      "ĠAllah": 8288,
      "Ġposted": 8289,
      "Ġdrives": 8290,
      "ĠJohnson": 8291,
      "Ġgrounds": 8292,
      "Ġinvestment": 8293,
      "Ġfunded": 8294,
      "scale": 8295,
      "Ġ1960": 8296,
      "Ġengineer": 8297,
      "Ġengineers": 8298,
      "cellosis": 8299,
      "Ġstrand": 8300,
      "ĠAgain": 8301,
      "Ġstrengthen": 8302,
      "ĠOften": 8303,
      "Ġsuscept": 8304,
      "olesterol": 8305,
      "Ġreviewed": 8306,
      "Ġcorrectly": 8307,
      "Ġphilosophical": 8308,
      "Ġboundaries": 8309,
      "Ġtube": 8310,
      "Ġpanel": 8311,
      "Ġprescribed": 8312,
      "Ġinherited": 8313,
      "ĠBetween": 8314,
      "ĠStephen": 8315,
      "Ġgalaxies": 8316,
      "Ġprecisely": 8317,
      "pressure": 8318,
      "Ġvessels": 8319,
      "Ġnutrients": 8320,
      "Ġimmigrants": 8321,
      "ĠRaymond": 8322,
      "Ġconclusions": 8323,
      "72": 8324,
      "Hz": 8325,
      "after": 8326,
      "mod": 8327,
      "pan": 8328,
      "sky": 8329,
      "top": 8330,
      "Ġtherapeut": 8331,
      "Ġpy": 8332,
      "Ġpup": 8333,
      "ald": 8334,
      "Ġbread": 8335,
      "asant": 8336,
      "ented": 8337,
      "Ġhab": 8338,
      "Ġthirty": 8339,
      "Ġreaches": 8340,
      "ĠTyp": 8341,
      "Ġnose": 8342,
      "Ġgate": 8343,
      "ĠCro": 8344,
      "ĠCreek": 8345,
      "otal": 8346,
      "cho": 8347,
      "Ġstick": 8348,
      "Ġstuff": 8349,
      "iral": 8350,
      "iration": 8351,
      "amber": 8352,
      "ĠMot": 8353,
      "ady": 8354,
      "ĠPut": 8355,
      "Ġwithd": 8356,
      "Ġorange": 8357,
      "mentation": 8358,
      "istical": 8359,
      "ĠHy": 8360,
      "Ġdeer": 8361,
      "ĠEaster": 8362,
      "ĠFace": 8363,
      "ighter": 8364,
      "ĠGran": 8365,
      "ĠGestalt": 8366,
      "ĠLog": 8367,
      "ĠOl": 8368,
      "Ġwheel": 8369,
      "Ġcompare": 8370,
      "ĠChromosome": 8371,
      "Ġoffering": 8372,
      "Ġamaz": 8373,
      "ĠAssembly": 8374,
      "Ġexped": 8375,
      "Ġinterf": 8376,
      "Ġdetection": 8377,
      "ĠForum": 8378,
      "Ġinstant": 8379,
      "Ġinstances": 8380,
      "Ġdefines": 8381,
      "Ġextends": 8382,
      "Ġprocessed": 8383,
      "Ġcorpor": 8384,
      "Ġvariation": 8385,
      "Ġenthus": 8386,
      "Ġdepicted": 8387,
      "ĠSpirit": 8388,
      "ocked": 8389,
      "Ġcharges": 8390,
      "Ġobjective": 8391,
      "ĠConventions": 8392,
      "Ġfarms": 8393,
      "lishing": 8394,
      "ĠClub": 8395,
      "ĠZeal": 8396,
      "Ġfinished": 8397,
      "Ġresearcher": 8398,
      "copene": 8399,
      "Ġtermed": 8400,
      "ĠRepresent": 8401,
      "Ġsensory": 8402,
      "Ġobservation": 8403,
      "annah": 8404,
      "ĠMinnes": 8405,
      "regon": 8406,
      "Ġinitially": 8407,
      "Ġcampus": 8408,
      "Ġbarrel": 8409,
      "Ġcomplications": 8410,
      "Ġevolutionists": 8411,
      "Ġmolecule": 8412,
      "Ġembra": 8413,
      "Ġacquired": 8414,
      "ĠVirt": 8415,
      "Ġestablishment": 8416,
      "Ġfemales": 8417,
      "Ġdispute": 8418,
      "Ġfifth": 8419,
      "Ġcryst": 8420,
      "Ġminority": 8421,
      "Ġmathematical": 8422,
      "Ġtrends": 8423,
      "Ġtomato": 8424,
      "Ġconcluded": 8425,
      "Ġsplit": 8426,
      "Ġapparently": 8427,
      "ĠMicrosoft": 8428,
      "ĠHistorical": 8429,
      "Ġfisheries": 8430,
      "ĠAdditionally": 8431,
      "Ġsucceeded": 8432,
      "effective": 8433,
      "%)": 8434,
      "300": 8435,
      "87": 8436,
      "CV": 8437,
      "GB": 8438,
      "HD": 8439,
      "MA": 8440,
      "Pro": 8441,
      "SU": 8442,
      "aic": 8443,
      "ba": 8444,
      "cin": 8445,
      "cies": 8446,
      "lation": 8447,
      "law": 8448,
      "rif": 8449,
      "vation": 8450,
      "wan": 8451,
      "Ġties": 8452,
      "Ġtons": 8453,
      "ati": 8454,
      "oro": 8455,
      "Ġpace": 8456,
      "Ġfer": 8457,
      "Ġfest": 8458,
      "icity": 8459,
      "Ġdict": 8460,
      "Ġho": 8461,
      "ila": 8462,
      "Ġreward": 8463,
      "omatic": 8464,
      "ometer": 8465,
      "sts": 8466,
      "Ġbees": 8467,
      "ĠAge": 8468,
      "etary": 8469,
      "ĠCW": 8470,
      "ĠIb": 8471,
      "ĠMoses": 8472,
      "Ġprocl": 8473,
      "mental": 8474,
      "ĠBush": 8475,
      "ĠWood": 8476,
      "ĠNic": 8477,
      "occ": 8478,
      "Ġsevent": 8479,
      "Ġcholesterol": 8480,
      "ĠLes": 8481,
      "action": 8482,
      "Ġusual": 8483,
      "Ġdisrupt": 8484,
      "Ġ1930": 8485,
      "ipher": 8486,
      "Ġpartner": 8487,
      "Ġteen": 8488,
      "ologic": 8489,
      "Ġracial": 8490,
      "Ġtwelve": 8491,
      "Ġbeta": 8492,
      "Ġrepair": 8493,
      "Ġproven": 8494,
      "Ġ44": 8495,
      "Ġinvasion": 8496,
      "icked": 8497,
      "ĠProcess": 8498,
      "Ġreferences": 8499,
      "Ġparticle": 8500,
      "Ġmonu": 8501,
      "Ġdownward": 8502,
      "Ġpersonnel": 8503,
      "coming": 8504,
      "Ġdescriptions": 8505,
      "class": 8506,
      "2010": 8507,
      "2013": 8508,
      "Ġserving": 8509,
      "Ġwrites": 8510,
      "Ġguard": 8511,
      "ugs": 8512,
      "Ġlabour": 8513,
      "Ġ1986": 8514,
      "Ġrealize": 8515,
      "aneously": 8516,
      "oxide": 8517,
      "ommod": 8518,
      "Ġfeelings": 8519,
      "ĠÂ»": 8520,
      "Ġmorph": 8521,
      "Ġdivine": 8522,
      "Ġliterally": 8523,
      "Ġsoils": 8524,
      "Ġreactions": 8525,
      "Ġlogical": 8526,
      "ĠSuz": 8527,
      "Ġsteam": 8528,
      "ĠBoard": 8529,
      "ĠObama": 8530,
      "Ġdealing": 8531,
      "arios": 8532,
      "Ġoccupation": 8533,
      "Ġallele": 8534,
      "Ġultimate": 8535,
      "ĠDisord": 8536,
      "ĠBerlin": 8537,
      "Ġmutations": 8538,
      "Ġruled": 8539,
      "Ġbanks": 8540,
      "ĠCapital": 8541,
      "Ġconverted": 8542,
      "ĠAngeles": 8543,
      "ĠEvolution": 8544,
      "Ġbeauty": 8545,
      "Ġreproductive": 8546,
      "Ġpartnership": 8547,
      "Ġconversation": 8548,
      "Ġphenomena": 8549,
      "Ġprayer": 8550,
      "ĠHungary": 8551,
      "ĠRabbi": 8552,
      "imensional": 8553,
      "Ġbattery": 8554,
      "ĠNolen": 8555,
      "Ġinflammation": 8556,
      "Ġthalamus": 8557,
      "ĠPhilosophy": 8558,
      "Ġenormous": 8559,
      "ĠMinnesota": 8560,
      ".;": 8561,
      "400": 8562,
      "62": 8563,
      "67": 8564,
      "De": 8565,
      "IL": 8566,
      "Re": 8567,
      "but": 8568,
      "bul": 8569,
      "door": 8570,
      "iy": 8571,
      "iological": 8572,
      "lines": 8573,
      "mble": 8574,
      "rical": 8575,
      "ua": 8576,
      "held": 8577,
      "hent": 8578,
      "rey": 8579,
      "atories": 8580,
      "Ġcul": 8581,
      "Ġcensus": 8582,
      "Ġcemetery": 8583,
      "isd": 8584,
      "Ġmature": 8585,
      "icts": 8586,
      "roid": 8587,
      "Ġhits": 8588,
      "Ġbeach": 8589,
      "ĠAR": 8590,
      "Ġgro": 8591,
      "ĠClear": 8592,
      "otype": 8593,
      "ĠMO": 8594,
      "Ġassemb": 8595,
      "Ġconvey": 8596,
      "ĠPed": 8597,
      "ĠPrison": 8598,
      "ĠBased": 8599,
      "istor": 8600,
      "ĠHud": 8601,
      "ĠDig": 8602,
      "ĠRA": 8603,
      "ĠNov": 8604,
      "ocent": 8605,
      "ortions": 8606,
      "Ġchor": 8607,
      "ptions": 8608,
      "asty": 8609,
      "Ġcontents": 8610,
      "Ġcontribution": 8611,
      "apse": 8612,
      "Ġunp": 8613,
      "Ġsoy": 8614,
      "Ġmaybe": 8615,
      "ailable": 8616,
      "obile": 8617,
      "ĠHead": 8618,
      "Ġourselves": 8619,
      "ĠForce": 8620,
      "ĠEnter": 8621,
      "Ġ700": 8622,
      "Ġactivation": 8623,
      "Ġconfidence": 8624,
      "ĠPhD": 8625,
      "Ġcapabilities": 8626,
      "mony": 8627,
      "Ġadvis": 8628,
      "tto": 8629,
      "Ġaircraft": 8630,
      "Ġ1989": 8631,
      "ĠTele": 8632,
      "Ġmotors": 8633,
      "Ġfunctioning": 8634,
      "print": 8635,
      "ributes": 8636,
      "Ġfocuses": 8637,
      "Ġconcerning": 8638,
      "Ġfalling": 8639,
      "Ġcircuit": 8640,
      "ĠPoll": 8641,
      "Ġargued": 8642,
      "Ġdamaged": 8643,
      "Ġaddressed": 8644,
      "Ġensuring": 8645,
      "Ġthreats": 8646,
      "Ġacceptable": 8647,
      "Ġliteracy": 8648,
      "Ġsteel": 8649,
      "Ġgraduate": 8650,
      "Ġpacket": 8651,
      "Ġrotation": 8652,
      "Ġrobust": 8653,
      "Ġsustainability": 8654,
      "Ġvaccines": 8655,
      "ĠSwed": 8656,
      "ĠPhysics": 8657,
      "Ġopinions": 8658,
      "Ġcontributions": 8659,
      "Ġbrothers": 8660,
      "Ġprotocols": 8661,
      "Ġathletes": 8662,
      "Ġmetabol": 8663,
      "Ġrevenue": 8664,
      "Ġdescendants": 8665,
      "ivestock": 8666,
      "ĠHearne": 8667,
      "Ġenzymes": 8668,
      "51": 8669,
      "PS": 8670,
      "br": 8671,
      "disc": 8672,
      "jud": 8673,
      "just": 8674,
      "mm": 8675,
      "made": 8676,
      "sub": 8677,
      "Ġtu": 8678,
      "Ġtables": 8679,
      "Ġtropical": 8680,
      "Ġoceans": 8681,
      "atra": 8682,
      "Ġsitting": 8683,
      "Ġsulf": 8684,
      "Ġcab": 8685,
      "Ġcure": 8686,
      "Ġcash": 8687,
      "essee": 8688,
      "itus": 8689,
      "Ġfought": 8690,
      "Ġmg": 8691,
      "Ġmood": 8692,
      "Ġhang": 8693,
      "Ġgases": 8694,
      "ĠSil": 8695,
      "uting": 8696,
      "ĠCT": 8697,
      "Ġstake": 8698,
      "Ġasbestos": 8699,
      "Ġconvention": 8700,
      "ĠPL": 8701,
      "ĠBol": 8702,
      "ĠBPA": 8703,
      "ĠHot": 8704,
      "Ġexempl": 8705,
      "ĠDate": 8706,
      "ĠDue": 8707,
      "Ġsuit": 8708,
      "Ġatoms": 8709,
      "ĠRh": 8710,
      "ĠNO": 8711,
      "ĠLocal": 8712,
      "Ġships": 8713,
      "ĠOregon": 8714,
      "Ġplot": 8715,
      "Ġplum": 8716,
      "Ġdisability": 8717,
      "Ġincred": 8718,
      "Ġresidential": 8719,
      "Ġperpet": 8720,
      "Ġcompounds": 8721,
      "eping": 8722,
      "Ġarmed": 8723,
      "Ġimpressive": 8724,
      "Ġinfect": 8725,
      "ensation": 8726,
      "Ġsciences": 8727,
      "orses": 8728,
      "Ġtrained": 8729,
      "Ġacting": 8730,
      "Ġbless": 8731,
      "Ġamph": 8732,
      "Ġattributed": 8733,
      "adequ": 8734,
      "Ġmining": 8735,
      "Ġinsight": 8736,
      "Ġinspect": 8737,
      "avement": 8738,
      "Ġvisc": 8739,
      "Ġconfused": 8740,
      "Ġantimicrobial": 8741,
      "azon": 8742,
      "ĠLeg": 8743,
      "Ġbelieves": 8744,
      "Ġterror": 8745,
      "Ġfacing": 8746,
      "Ġ1983": 8747,
      "Ġradical": 8748,
      "ippi": 8749,
      "Ġ140": 8750,
      "Ġfragments": 8751,
      "Ġfalls": 8752,
      "Ġconducting": 8753,
      "ĠAssess": 8754,
      "Ġstriking": 8755,
      "Ġ1965": 8756,
      "Ġpermits": 8757,
      "Ġcollective": 8758,
      "ĠJuan": 8759,
      "Ġuranium": 8760,
      "Ġvillagers": 8761,
      "ĠSuper": 8762,
      "Ġvideos": 8763,
      "Ġbacterial": 8764,
      "Ġremoval": 8765,
      "Ġattempted": 8766,
      "holders": 8767,
      "Ġbringing": 8768,
      "Ġsediments": 8769,
      "ĠArticle": 8770,
      "Ġcrack": 8771,
      "ĠHeritage": 8772,
      "Ġorders": 8773,
      "Ġangles": 8774,
      "Ġtranslation": 8775,
      "eroids": 8776,
      "Ġcelebrate": 8777,
      "ĠDeclar": 8778,
      "Ġautomatically": 8779,
      "Ġtransferred": 8780,
      "Ġgirl": 8781,
      "Ġscholar": 8782,
      "Ġrecommendations": 8783,
      "Ġfifty": 8784,
      "ĠVolume": 8785,
      "ĠBelow": 8786,
      "ĠKenya": 8787,
      "Ġinformed": 8788,
      "Ġantibiotics": 8789,
      "Ġunlikely": 8790,
      "Ġdefeat": 8791,
      "Ġsubsid": 8792,
      "Ġneurolog": 8793,
      "Ġchicken": 8794,
      "Ġhorizontal": 8795,
      "Ġdiameter": 8796,
      "ĠNavajo": 8797,
      "ĠSudan": 8798,
      "ĠZealand": 8799,
      "ĠHudson": 8800,
      "MS": 8801,
      "bered": 8802,
      "gers": 8803,
      "pd": 8804,
      "page": 8805,
      "Ġicon": 8806,
      "Ġblow": 8807,
      "Ġfate": 8808,
      "icious": 8809,
      "Ġhat": 8810,
      "Ġreverse": 8811,
      "omer": 8812,
      "ĠAIDS": 8813,
      "olving": 8814,
      "ĠSex": 8815,
      "otation": 8816,
      "âĢĺ": 8817,
      "Ġstood": 8818,
      "Ġstack": 8819,
      "irr": 8820,
      "ĠMach": 8821,
      "ĠMenn": 8822,
      "eli": 8823,
      "eland": 8824,
      "Ġprox": 8825,
      "mented": 8826,
      "usc": 8827,
      "about": 8828,
      "emed": 8829,
      "ĠFar": 8830,
      "ĠFact": 8831,
      "ĠFire": 8832,
      "ĠFish": 8833,
      "ĠRos": 8834,
      "Ġwash": 8835,
      "Ġven": 8836,
      "ĠNut": 8837,
      "keys": 8838,
      "ĠGarden": 8839,
      "Ġrational": 8840,
      "ĠOhio": 8841,
      "ghan": 8842,
      "ruit": 8843,
      "Ġcontamination": 8844,
      "aga": 8845,
      "iber": 8846,
      "Ġresidence": 8847,
      "Ġbutton": 8848,
      "Ġapplies": 8849,
      "ĠKids": 8850,
      "ĠStart": 8851,
      "ologically": 8852,
      "Ġrooms": 8853,
      "text": 8854,
      "Ġovercome": 8855,
      "Ġnewly": 8856,
      "Ġnoise": 8857,
      "Ġ41": 8858,
      "Ġ43": 8859,
      "Ġacute": 8860,
      "grade": 8861,
      "Ġsmoke": 8862,
      "Ġoccipital": 8863,
      "Ġcarries": 8864,
      "Ġbackward": 8865,
      "ĠScript": 8866,
      "Ġcurve": 8867,
      "Ġlessons": 8868,
      "Ġmeteor": 8869,
      "Ġmethane": 8870,
      "Ġrestricted": 8871,
      "ĠChristmas": 8872,
      "ĠZion": 8873,
      "Ġavailability": 8874,
      "Ġplanting": 8875,
      "Ġcheap": 8876,
      "spring": 8877,
      "ĠConserv": 8878,
      "Ġflows": 8879,
      "Ġessay": 8880,
      "Ġwindows": 8881,
      "Ġannually": 8882,
      "Ġparticipating": 8883,
      "shaped": 8884,
      "Ġfluids": 8885,
      "Ġchoices": 8886,
      "verest": 8887,
      "Ġcrude": 8888,
      "factory": 8889,
      "Ġmeasurement": 8890,
      "Ġemerged": 8891,
      "ĠTradition": 8892,
      "Ġversus": 8893,
      "ĠEdward": 8894,
      "Ġinjured": 8895,
      "Ġprecip": 8896,
      "Ġreveals": 8897,
      "Ġvictim": 8898,
      "Ġcraw": 8899,
      "Ġtransmitted": 8900,
      "Ġcleaning": 8901,
      "Ġtelevision": 8902,
      "Ġtelecommunications": 8903,
      "Ġtissues": 8904,
      "Ġlimitations": 8905,
      "Ġadvantages": 8906,
      "Ġruling": 8907,
      "Ġadapted": 8908,
      "ĠBuddhism": 8909,
      "Ġcoordinate": 8910,
      "ĠScientific": 8911,
      "Ġfavorite": 8912,
      "Ġdimin": 8913,
      "Ġbonds": 8914,
      "ĠUpd": 8915,
      "Ġuniversal": 8916,
      "Ġscenarios": 8917,
      "Ġtrigger": 8918,
      "Ġhurric": 8919,
      "Ġregistered": 8920,
      "ĠNECT": 8921,
      "Ġcontinuing": 8922,
      "Ġenemy": 8923,
      "Ġabandoned": 8924,
      "Ġenforcement": 8925,
      "ĠAbraham": 8926,
      "Ġconfirmed": 8927,
      "ĠNepal": 8928,
      "ĠHPV": 8929,
      "ĠTennessee": 8930,
      "Ġmolasses": 8931,
      "Ġarranged": 8932,
      "Ġcallosum": 8933,
      "09": 8934,
      "54": 8935,
      "79": 8936,
      "Ind": 8937,
      "gence": 8938,
      "nov": 8939,
      "pent": 8940,
      "rity": 8941,
      "sm": 8942,
      "uild": 8943,
      "word": 8944,
      "writ": 8945,
      "Ã¦": 8946,
      "Ġahead": 8947,
      "only": 8948,
      "orig": 8949,
      "Ġpion": 8950,
      "Ġfract": 8951,
      "Ġinadequ": 8952,
      "Ġmunicipal": 8953,
      "icing": 8954,
      "Ġdys": 8955,
      "rove": 8956,
      "Ġhier": 8957,
      "Ġhospitals": 8958,
      "ĠTen": 8959,
      "Ġnerv": 8960,
      "ĠSoy": 8961,
      "rained": 8962,
      "ĠCrit": 8963,
      "ĠIU": 8964,
      "otyp": 8965,
      "Ġstead": 8966,
      "Ġstores": 8967,
      "ĠMoon": 8968,
      "Ġ120": 8969,
      "ĠPrag": 8970,
      "ifida": 8971,
      "ĠBob": 8972,
      "istence": 8973,
      "ĠHyd": 8974,
      "Ġdece": 8975,
      "abeth": 8976,
      "ĠDrug": 8977,
      "quir": 8978,
      "Ġvac": 8979,
      "ĠGive": 8980,
      "Ġspat": 8981,
      "Ġspending": 8982,
      "Ġworst": 8983,
      "Ġworry": 8984,
      "izabeth": 8985,
      "agan": 8986,
      "Ġarise": 8987,
      "ordinary": 8988,
      "Ġupward": 8989,
      "Ġthemes": 8990,
      "ificate": 8991,
      "Ġaccommod": 8992,
      "Ġoffices": 8993,
      "Ġpole": 8994,
      "Ġacre": 8995,
      "Ġ55": 8996,
      "Ġcouldn": 8997,
      "Ġattended": 8998,
      "Ġremed": 8999,
      "Ġtransnational": 9000,
      "Ġsecre": 9001,
      "Ġcave": 9002,
      "ĠIndividual": 9003,
      "Ġboot": 9004,
      "Ġsolve": 9005,
      "Ġbelt": 9006,
      "ĠPhot": 9007,
      "Ġtemporary": 9008,
      "Ġguess": 9009,
      "ĠCentury": 9010,
      "ĠLeague": 9011,
      "Ġdevast": 9012,
      "Ġcomputing": 9013,
      "Ġharder": 9014,
      "Ġrealized": 9015,
      "2005": 9016,
      "Ġerad": 9017,
      "aneous": 9018,
      "Ġlawn": 9019,
      "Ġdemands": 9020,
      "Ġfragment": 9021,
      "Ġinfluences": 9022,
      "Ġprobability": 9023,
      "Ġcopper": 9024,
      "ĠMarine": 9025,
      "screen": 9026,
      "Ġlibr": 9027,
      "Ġcontainer": 9028,
      "ĠMean": 9029,
      "Ġlogic": 9030,
      "Ġdefinitions": 9031,
      "Ġsustained": 9032,
      "Ġmutual": 9033,
      "ĠIncre": 9034,
      "ĠÃĩ": 9035,
      "ĠWorking": 9036,
      "ĠAtlanta": 9037,
      "Ġphysicians": 9038,
      "Ġexpertise": 9039,
      "Ġsubmitted": 9040,
      "ĠAnabaptists": 9041,
      "ĠAnabaptism": 9042,
      "Ġinnovation": 9043,
      "Ġincorporated": 9044,
      "Ġhopes": 9045,
      "Ġbehaviour": 9046,
      "Ġhunters": 9047,
      "Ġcrowd": 9048,
      "ĠEngineering": 9049,
      "Ġflexible": 9050,
      "ĠJeff": 9051,
      "ĠAgriculture": 9052,
      "Ġtestimony": 9053,
      "ĠDeclaration": 9054,
      "!\"": 9055,
      "%.": 9056,
      ".||": 9057,
      "And": 9058,
      "Con": 9059,
      "MP": 9060,
      "Sp": 9061,
      "bles": 9062,
      "dimensional": 9063,
      "fri": 9064,
      "green": 9065,
      "rators": 9066,
      "whel": 9067,
      "Ġ;": 9068,
      "Ġton": 9069,
      "Ġtires": 9070,
      "heres": 9071,
      "inery": 9072,
      "reens": 9073,
      "Ġcord": 9074,
      "ederation": 9075,
      "Ġbridge": 9076,
      "Ġbiodiversity": 9077,
      "Ġment": 9078,
      "Ġdies": 9079,
      "Ġdinos": 9080,
      "rog": 9081,
      "Ġerect": 9082,
      "Ġbee": 9083,
      "ĠAqu": 9084,
      "ĠAction": 9085,
      "ĠSem": 9086,
      "eting": 9087,
      "rand": 9088,
      "raph": 9089,
      "ĠCard": 9090,
      "ĠCertain": 9091,
      "urning": 9092,
      "Ġstorms": 9093,
      "Ġconstitute": 9094,
      "ĠPA": 9095,
      "ifted": 9096,
      "ĠBang": 9097,
      "ĠBattle": 9098,
      "ĠHon": 9099,
      "ĠHindu": 9100,
      "throp": 9101,
      "illance": 9102,
      "ĠDam": 9103,
      "anda": 9104,
      "ĠEll": 9105,
      "ĠEvent": 9106,
      "ĠFa": 9107,
      "ĠFOR": 9108,
      "Ġvotes": 9109,
      "ocial": 9110,
      "ĠGall": 9111,
      "Ġspoke": 9112,
      "Ġshipping": 9113,
      "ĠJur": 9114,
      "duction": 9115,
      "activity": 9116,
      "Ġcontributed": 9117,
      "ĠChief": 9118,
      "ĠVan": 9119,
      "lected": 9120,
      "Ġrelax": 9121,
      "Ġexport": 9122,
      "Ġregister": 9123,
      "ieth": 9124,
      "ĠAnsw": 9125,
      "Ġwells": 9126,
      "ĠReference": 9127,
      "Ġeveryday": 9128,
      "ounced": 9129,
      "ĠIndust": 9130,
      "ĠAndrew": 9131,
      "dev": 9132,
      "Ġmarks": 9133,
      "Ġpassive": 9134,
      "Ġprogramme": 9135,
      "ĠPlace": 9136,
      "Ġelig": 9137,
      "Ġpainful": 9138,
      "ĠSyria": 9139,
      "Ġswallow": 9140,
      "ĠPolice": 9141,
      "ĠPolicy": 9142,
      "ĠMinor": 9143,
      "ĠNeu": 9144,
      "Ġregardless": 9145,
      "ĠChristianity": 9146,
      "ĠTrade": 9147,
      "Ġmaintaining": 9148,
      "Ġcalculated": 9149,
      "ĠMorgan": 9150,
      "inois": 9151,
      "Ġspirits": 9152,
      "Ġwaiting": 9153,
      "Ġcitizen": 9154,
      "Ġdocumentation": 9155,
      "ĠMountain": 9156,
      "Ġdistinction": 9157,
      "nesday": 9158,
      "Ġestablishing": 9159,
      "Ġconstitutional": 9160,
      "Ġcustomers": 9161,
      "ĠASD": 9162,
      "Ġhouseholds": 9163,
      "ĠQueen": 9164,
      "ĠMuham": 9165,
      "Ġregistration": 9166,
      "ĠIllinois": 9167,
      "Ġscheduled": 9168,
      "Ġparameters": 9169,
      "Ġbutterf": 9170,
      "Ġdivorce": 9171,
      "Ġenlarged": 9172,
      "ĠSecretary": 9173,
      "Ġholiday": 9174,
      "Ġearthquake": 9175,
      "42": 9176,
      "52": 9177,
      "59": 9178,
      "94": 9179,
      "CA": 9180,
      "IST": 9181,
      "bec": 9182,
      "gi": 9183,
      "mel": 9184,
      "rink": 9185,
      "tw": 9186,
      "Ĥ¬": 9187,
      "Ġtag": 9188,
      "Ġol": 9189,
      "onym": 9190,
      "Ġsad": 9191,
      "Ġsoph": 9192,
      "Ġcd": 9193,
      "ala": 9194,
      "Ġinherent": 9195,
      "icut": 9196,
      "role": 9197,
      "Ġlens": 9198,
      "Ġlying": 9199,
      "sets": 9200,
      "idation": 9201,
      "iders": 9202,
      "ĠSir": 9203,
      "urt": 9204,
      "Ġforg": 9205,
      "igate": 9206,
      "amine": 9207,
      "uli": 9208,
      "ĠMB": 9209,
      "ĠPic": 9210,
      "Ġoral": 9211,
      "ĠHop": 9212,
      "ĠHans": 9213,
      "ĠHCV": 9214,
      "ĠRO": 9215,
      "Ġsearc": 9216,
      "Ġcha": 9217,
      "Ġchose": 9218,
      "Ġchromosome": 9219,
      "Ġring": 9220,
      "outheast": 9221,
      "rue": 9222,
      "Ġwheat": 9223,
      "aka": 9224,
      "akistan": 9225,
      "Ġadvent": 9226,
      "endment": 9227,
      "Ġpert": 9228,
      "Ġimprint": 9229,
      "ĠVe": 9230,
      "Ġaging": 9231,
      "Ġtract": 9232,
      "Ġtrace": 9233,
      "Ġgenu": 9234,
      "Ġgenome": 9235,
      "Ġrays": 9236,
[...]
